{
  "version": "1.0",
  "truncation": null,
  "padding": null,
  "added_tokens": [
    {
      "id": 0,
      "content": "[UNK]",
      "single_word": false,
      "lstrip": false,
      "rstrip": false,
      "normalized": false,
      "special": true
    },
    {
      "id": 1,
      "content": "[PAD]",
      "single_word": false,
      "lstrip": false,
      "rstrip": false,
      "normalized": false,
      "special": true
    },
    {
      "id": 2,
      "content": "[BOS]",
      "single_word": false,
      "lstrip": false,
      "rstrip": false,
      "normalized": false,
      "special": true
    },
    {
      "id": 3,
      "content": "[EOS]",
      "single_word": false,
      "lstrip": false,
      "rstrip": false,
      "normalized": false,
      "special": true
    }
  ],
  "normalizer": null,
  "pre_tokenizer": {
    "type": "Whitespace"
  },
  "post_processor": null,
  "decoder": null,
  "model": {
    "type": "BPE",
    "dropout": null,
    "unk_token": "[UNK]",
    "continuing_subword_prefix": null,
    "end_of_word_suffix": null,
    "fuse_unk": false,
    "byte_fallback": false,
    "ignore_merges": false,
    "vocab": {
      "[UNK]": 0,
      "[PAD]": 1,
      "[BOS]": 2,
      "[EOS]": 3,
      "\ue000": 4,
      "\ue001": 5,
      "\ue002": 6,
      "\ue003": 7,
      "\ue004": 8,
      "\ue005": 9,
      "\ue006": 10,
      "\ue007": 11,
      "\ue008": 12,
      "\ue009": 13,
      "\ue00a": 14,
      "\ue00b": 15,
      "\ue00c": 16,
      "\ue00d": 17,
      "\ue00e": 18,
      "\ue00f": 19,
      "\ue010": 20,
      "\ue011": 21,
      "\ue012": 22,
      "\ue013": 23,
      "\ue014": 24,
      "\ue015": 25,
      "\ue016": 26,
      "\ue017": 27,
      "\ue018": 28,
      "\ue019": 29,
      "\ue01a": 30,
      "\ue01b": 31,
      "\ue01c": 32,
      "\ue01d": 33,
      "\ue01e": 34,
      "\ue01f": 35,
      "\ue020": 36,
      "\ue021": 37,
      "\ue022": 38,
      "\ue023": 39,
      "\ue024": 40,
      "\ue025": 41,
      "\ue026": 42,
      "\ue027": 43,
      "\ue028": 44,
      "\ue029": 45,
      "\ue02a": 46,
      "\ue02b": 47,
      "\ue02c": 48,
      "\ue02d": 49,
      "\ue02e": 50,
      "\ue02f": 51,
      "\ue030": 52,
      "\ue031": 53,
      "\ue032": 54,
      "\ue033": 55,
      "\ue034": 56,
      "\ue035": 57,
      "\ue036": 58,
      "\ue037": 59,
      "\ue038": 60,
      "\ue039": 61,
      "\ue03a": 62,
      "\ue03b": 63,
      "\ue03c": 64,
      "\ue03d": 65,
      "\ue03e": 66,
      "\ue03f": 67,
      "\ue040": 68,
      "\ue041": 69,
      "\ue042": 70,
      "\ue043": 71,
      "\ue044": 72,
      "\ue045": 73,
      "\ue046": 74,
      "\ue047": 75,
      "\ue048": 76,
      "\ue049": 77,
      "\ue04a": 78,
      "\ue04b": 79,
      "\ue04c": 80,
      "\ue04d": 81,
      "\ue04e": 82,
      "\ue04f": 83,
      "\ue050": 84,
      "\ue051": 85,
      "\ue052": 86,
      "\ue053": 87,
      "\ue054": 88,
      "\ue055": 89,
      "\ue056": 90,
      "\ue057": 91,
      "\ue058": 92,
      "\ue059": 93,
      "\ue05a": 94,
      "\ue05b": 95,
      "\ue05c": 96,
      "\ue05d": 97,
      "\ue05e": 98,
      "\ue05f": 99,
      "\ue060": 100,
      "\ue061": 101,
      "\ue062": 102,
      "\ue063": 103,
      "\ue064": 104,
      "\ue065": 105,
      "\ue066": 106,
      "\ue067": 107,
      "\ue068": 108,
      "\ue069": 109,
      "\ue06a": 110,
      "\ue06b": 111,
      "\ue06c": 112,
      "\ue06d": 113,
      "\ue06e": 114,
      "\ue06f": 115,
      "\ue070": 116,
      "\ue071": 117,
      "\ue072": 118,
      "\ue073": 119,
      "\ue074": 120,
      "\ue075": 121,
      "\ue076": 122,
      "\ue077": 123,
      "\ue078": 124,
      "\ue079": 125,
      "\ue07a": 126,
      "\ue07b": 127,
      "\ue07c": 128,
      "\ue07d": 129,
      "\ue07e": 130,
      "\ue07f": 131,
      "\ue080": 132,
      "\ue081": 133,
      "\ue082": 134,
      "\ue083": 135,
      "\ue084": 136,
      "\ue085": 137,
      "\ue086": 138,
      "\ue087": 139,
      "\ue088": 140,
      "\ue089": 141,
      "\ue08a": 142,
      "\ue08b": 143,
      "\ue08c": 144,
      "\ue08d": 145,
      "\ue08e": 146,
      "\ue08f": 147,
      "\ue090": 148,
      "\ue091": 149,
      "\ue092": 150,
      "\ue093": 151,
      "\ue094": 152,
      "\ue095": 153,
      "\ue096": 154,
      "\ue097": 155,
      "\ue098": 156,
      "\ue099": 157,
      "\ue09a": 158,
      "\ue09b": 159,
      "\ue09c": 160,
      "\ue09d": 161,
      "\ue09e": 162,
      "\ue09f": 163,
      "\ue0a0": 164,
      "\ue0a1": 165,
      "\ue0a2": 166,
      "\ue0a3": 167,
      "\ue0a4": 168,
      "\ue0a5": 169,
      "\ue0a6": 170,
      "\ue0a7": 171,
      "\ue0a8": 172,
      "\ue0a9": 173,
      "\ue0aa": 174,
      "\ue0ab": 175,
      "\ue0ac": 176,
      "\ue0ad": 177,
      "\ue0ae": 178,
      "\ue0af": 179,
      "\ue0b0": 180,
      "\ue0b1": 181,
      "\ue0b2": 182,
      "\ue0b3": 183,
      "\ue0b4": 184,
      "\ue0b5": 185,
      "\ue0b6": 186,
      "\ue0b7": 187,
      "\ue0b8": 188,
      "\ue0b9": 189,
      "\ue0ba": 190,
      "\ue0bb": 191,
      "\ue0bc": 192,
      "\ue0bd": 193,
      "\ue0be": 194,
      "\ue0bf": 195,
      "\ue0c0": 196,
      "\ue0c1": 197,
      "\ue0c2": 198,
      "\ue0c3": 199,
      "\ue0c4": 200,
      "\ue0c5": 201,
      "\ue0c6": 202,
      "\ue0c7": 203,
      "\ue0c8": 204,
      "\ue0c9": 205,
      "\ue0ca": 206,
      "\ue0cb": 207,
      "\ue0cc": 208,
      "\ue0cd": 209,
      "\ue0ce": 210,
      "\ue0cf": 211,
      "\ue0d0": 212,
      "\ue0d1": 213,
      "\ue0d2": 214,
      "\ue0d3": 215,
      "\ue0d4": 216,
      "\ue0d5": 217,
      "\ue0d6": 218,
      "\ue0d7": 219,
      "\ue0d8": 220,
      "\ue0d9": 221,
      "\ue0da": 222,
      "\ue0db": 223,
      "\ue0dc": 224,
      "\ue0dd": 225,
      "\ue0de": 226,
      "\ue0df": 227,
      "\ue0e0": 228,
      "\ue0e1": 229,
      "\ue0e2": 230,
      "\ue0e3": 231,
      "\ue0e4": 232,
      "\ue0e5": 233,
      "\ue0e6": 234,
      "\ue0e7": 235,
      "\ue0e8": 236,
      "\ue0e9": 237,
      "\ue0ea": 238,
      "\ue0eb": 239,
      "\ue0ec": 240,
      "\ue0ed": 241,
      "\ue0ee": 242,
      "\ue0ef": 243,
      "\ue0f0": 244,
      "\ue0f1": 245,
      "\ue0f2": 246,
      "\ue0f3": 247,
      "\ue0f4": 248,
      "\ue0f5": 249,
      "\ue0f6": 250,
      "\ue0f7": 251,
      "\ue0f8": 252,
      "\ue0f9": 253,
      "\ue0fa": 254,
      "\ue0fb": 255,
      "\ue0fc": 256,
      "\ue0fd": 257,
      "\ue0fe": 258,
      "\ue0ff": 259,
      "\ue100": 260,
      "\ue101": 261,
      "\ue102": 262,
      "\ue103": 263,
      "\ue104": 264,
      "\ue105": 265,
      "\ue106": 266,
      "\ue107": 267,
      "\ue108": 268,
      "\ue109": 269,
      "\ue10a": 270,
      "\ue10b": 271,
      "\ue10c": 272,
      "\ue10d": 273,
      "\ue10e": 274,
      "\ue10f": 275,
      "\ue110": 276,
      "\ue111": 277,
      "\ue112": 278,
      "\ue113": 279,
      "\ue114": 280,
      "\ue115": 281,
      "\ue116": 282,
      "\ue117": 283,
      "\ue118": 284,
      "\ue119": 285,
      "\ue11a": 286,
      "\ue11b": 287,
      "\ue11c": 288,
      "\ue11d": 289,
      "\ue11e": 290,
      "\ue11f": 291,
      "\ue120": 292,
      "\ue121": 293,
      "\ue122": 294,
      "\ue123": 295,
      "\ue124": 296,
      "\ue125": 297,
      "\ue126": 298,
      "\ue127": 299,
      "\ue128": 300,
      "\ue129": 301,
      "\ue12a": 302,
      "\ue12b": 303,
      "\ue12c": 304,
      "\ue12d": 305,
      "\ue12e": 306,
      "\ue12f": 307,
      "\ue130": 308,
      "\ue131": 309,
      "\ue132": 310,
      "\ue133": 311,
      "\ue134": 312,
      "\ue135": 313,
      "\ue136": 314,
      "\ue137": 315,
      "\ue138": 316,
      "\ue139": 317,
      "\ue13a": 318,
      "\ue13b": 319,
      "\ue13c": 320,
      "\ue13d": 321,
      "\ue13e": 322,
      "\ue13f": 323,
      "\ue140": 324,
      "\ue141": 325,
      "\ue142": 326,
      "\ue143": 327,
      "\ue144": 328,
      "\ue145": 329,
      "\ue146": 330,
      "\ue147": 331,
      "\ue148": 332,
      "\ue149": 333,
      "\ue14a": 334,
      "\ue14b": 335,
      "\ue14c": 336,
      "\ue14d": 337,
      "\ue14e": 338,
      "\ue14f": 339,
      "\ue150": 340,
      "\ue151": 341,
      "\ue152": 342,
      "\ue153": 343,
      "\ue154": 344,
      "\ue155": 345,
      "\ue156": 346,
      "\ue157": 347,
      "\ue158": 348,
      "\ue159": 349,
      "\ue15a": 350,
      "\ue15b": 351,
      "\ue15c": 352,
      "\ue15d": 353,
      "\ue15e": 354,
      "\ue15f": 355,
      "\ue160": 356,
      "\ue161": 357,
      "\ue162": 358,
      "\ue163": 359,
      "\ue164": 360,
      "\ue165": 361,
      "\ue166": 362,
      "\ue167": 363,
      "\ue168": 364,
      "\ue169": 365,
      "\ue16a": 366,
      "\ue16b": 367,
      "\ue16c": 368,
      "\ue16d": 369,
      "\ue16e": 370,
      "\ue16f": 371,
      "\ue170": 372,
      "\ue171": 373,
      "\ue172": 374,
      "\ue173": 375,
      "\ue174": 376,
      "\ue175": 377,
      "\ue176": 378,
      "\ue177": 379,
      "\ue178": 380,
      "\ue179": 381,
      "\ue17a": 382,
      "\ue17b": 383,
      "\ue17c": 384,
      "\ue17d": 385,
      "\ue17e": 386,
      "\ue17f": 387,
      "\ue180": 388,
      "\ue181": 389,
      "\ue182": 390,
      "\ue183": 391,
      "\ue184": 392,
      "\ue185": 393,
      "\ue186": 394,
      "\ue187": 395,
      "\ue188": 396,
      "\ue189": 397,
      "\ue18a": 398,
      "\ue18b": 399,
      "\ue18c": 400,
      "\ue18d": 401,
      "\ue18e": 402,
      "\ue18f": 403,
      "\ue190": 404,
      "\ue191": 405,
      "\ue192": 406,
      "\ue193": 407,
      "\ue194": 408,
      "\ue195": 409,
      "\ue196": 410,
      "\ue197": 411,
      "\ue198": 412,
      "\ue199": 413,
      "\ue19a": 414,
      "\ue19b": 415,
      "\ue19c": 416,
      "\ue19d": 417,
      "\ue19e": 418,
      "\ue19f": 419,
      "\ue1a0": 420,
      "\ue1a1": 421,
      "\ue1a2": 422,
      "\ue1a3": 423,
      "\ue1a4": 424,
      "\ue1a5": 425,
      "\ue1a6": 426,
      "\ue1a7": 427,
      "\ue1a8": 428,
      "\ue1a9": 429,
      "\ue1aa": 430,
      "\ue1ab": 431,
      "\ue1ac": 432,
      "\ue1ad": 433,
      "\ue1ae": 434,
      "\ue1af": 435,
      "\ue1b0": 436,
      "\ue1b1": 437,
      "\ue1b2": 438,
      "\ue1b3": 439,
      "\ue1b4": 440,
      "\ue1b5": 441,
      "\ue1b6": 442,
      "\ue1b7": 443,
      "\ue1b8": 444,
      "\ue1b9": 445,
      "\ue1ba": 446,
      "\ue1bb": 447,
      "\ue1bc": 448,
      "\ue1bd": 449,
      "\ue1be": 450,
      "\ue1bf": 451,
      "\ue1c0": 452,
      "\ue1c1": 453,
      "\ue1c2": 454,
      "\ue1c3": 455,
      "\ue1c4": 456,
      "\ue1c5": 457,
      "\ue1c6": 458,
      "\ue1c7": 459,
      "\ue1c8": 460,
      "\ue1c9": 461,
      "\ue1ca": 462,
      "\ue1cb": 463,
      "\ue1cc": 464,
      "\ue1cd": 465,
      "\ue1ce": 466,
      "\ue1cf": 467,
      "\ue1d0": 468,
      "\ue1d1": 469,
      "\ue1d2": 470,
      "\ue1d3": 471,
      "\ue1d4": 472,
      "\ue1d5": 473,
      "\ue1d6": 474,
      "\ue1d7": 475,
      "\ue1d8": 476,
      "\ue1d9": 477,
      "\ue1da": 478,
      "\ue1db": 479,
      "\ue1dc": 480,
      "\ue1dd": 481,
      "\ue1de": 482,
      "\ue1df": 483,
      "\ue1e0": 484,
      "\ue1e1": 485,
      "\ue1e2": 486,
      "\ue1e3": 487,
      "\ue1e4": 488,
      "\ue1e5": 489,
      "\ue1e6": 490,
      "\ue1e7": 491,
      "\ue1e8": 492,
      "\ue1e9": 493,
      "\ue1ea": 494,
      "\ue1eb": 495,
      "\ue1ec": 496,
      "\ue1ed": 497,
      "\ue1ee": 498,
      "\ue1ef": 499,
      "\ue1f0": 500,
      "\ue1f1": 501,
      "\ue1f2": 502,
      "\ue1f3": 503,
      "\ue1f4": 504,
      "\ue1f5": 505,
      "\ue1f6": 506,
      "\ue1f7": 507,
      "\ue1f8": 508,
      "\ue1f9": 509,
      "\ue1fa": 510,
      "\ue1fb": 511,
      "\ue1fc": 512,
      "\ue1fd": 513,
      "\ue1fe": 514,
      "\ue1ff": 515,
      "\ue200": 516,
      "\ue201": 517,
      "\ue202": 518,
      "\ue203": 519,
      "\ue204": 520,
      "\ue205": 521,
      "\ue206": 522,
      "\ue207": 523,
      "\ue208": 524,
      "\ue209": 525,
      "\ue20a": 526,
      "\ue20b": 527,
      "\ue20c": 528,
      "\ue20d": 529,
      "\ue20e": 530,
      "\ue20f": 531,
      "\ue210": 532,
      "\ue211": 533,
      "\ue212": 534,
      "\ue213": 535,
      "\ue214": 536,
      "\ue215": 537,
      "\ue216": 538,
      "\ue217": 539,
      "\ue218": 540,
      "\ue219": 541,
      "\ue21a": 542,
      "\ue21b": 543,
      "\ue21c": 544,
      "\ue21d": 545,
      "\ue21e": 546,
      "\ue21f": 547,
      "\ue220": 548,
      "\ue221": 549,
      "\ue222": 550,
      "\ue223": 551,
      "\ue224": 552,
      "\ue225": 553,
      "\ue226": 554,
      "\ue227": 555,
      "\ue228": 556,
      "\ue229": 557,
      "\ue22a": 558,
      "\ue22b": 559,
      "\ue22c": 560,
      "\ue22d": 561,
      "\ue22e": 562,
      "\ue22f": 563,
      "\ue230": 564,
      "\ue231": 565,
      "\ue232": 566,
      "\ue233": 567,
      "\ue234": 568,
      "\ue235": 569,
      "\ue236": 570,
      "\ue237": 571,
      "\ue238": 572,
      "\ue239": 573,
      "\ue23a": 574,
      "\ue23b": 575,
      "\ue23c": 576,
      "\ue23d": 577,
      "\ue23e": 578,
      "\ue23f": 579,
      "\ue240": 580,
      "\ue241": 581,
      "\ue242": 582,
      "\ue243": 583,
      "\ue244": 584,
      "\ue245": 585,
      "\ue246": 586,
      "\ue247": 587,
      "\ue248": 588,
      "\ue249": 589,
      "\ue24a": 590,
      "\ue24b": 591,
      "\ue24c": 592,
      "\ue24d": 593,
      "\ue24e": 594,
      "\ue24f": 595,
      "\ue250": 596,
      "\ue251": 597,
      "\ue252": 598,
      "\ue253": 599,
      "\ue254": 600,
      "\ue255": 601,
      "\ue256": 602,
      "\ue257": 603,
      "\ue258": 604,
      "\ue259": 605,
      "\ue25a": 606,
      "\ue25b": 607,
      "\ue25c": 608,
      "\ue25d": 609,
      "\ue25e": 610,
      "\ue25f": 611,
      "\ue260": 612,
      "\ue261": 613,
      "\ue262": 614,
      "\ue263": 615,
      "\ue264": 616,
      "\ue265": 617,
      "\ue266": 618,
      "\ue267": 619,
      "\ue268": 620,
      "\ue269": 621,
      "\ue26a": 622,
      "\ue26b": 623,
      "\ue26c": 624,
      "\ue26d": 625,
      "\ue26e": 626,
      "\ue26f": 627,
      "\ue270": 628,
      "\ue271": 629,
      "\ue272": 630,
      "\ue273": 631,
      "\ue274": 632,
      "\ue275": 633,
      "\ue276": 634,
      "\ue277": 635,
      "\ue278": 636,
      "\ue279": 637,
      "\ue27a": 638,
      "\ue27b": 639,
      "\ue27c": 640,
      "\ue27d": 641,
      "\ue27e": 642,
      "\ue27f": 643,
      "\ue280": 644,
      "\ue281": 645,
      "\ue282": 646,
      "\ue283": 647,
      "\ue284": 648,
      "\ue285": 649,
      "\ue286": 650,
      "\ue287": 651,
      "\ue288": 652,
      "\ue289": 653,
      "\ue28a": 654,
      "\ue28b": 655,
      "\ue28c": 656,
      "\ue28d": 657,
      "\ue28e": 658,
      "\ue28f": 659,
      "\ue290": 660,
      "\ue291": 661,
      "\ue292": 662,
      "\ue293": 663,
      "\ue294": 664,
      "\ue295": 665,
      "\ue296": 666,
      "\ue297": 667,
      "\ue298": 668,
      "\ue299": 669,
      "\ue29a": 670,
      "\ue29b": 671,
      "\ue29c": 672,
      "\ue29d": 673,
      "\ue29e": 674,
      "\ue29f": 675,
      "\ue2a0": 676,
      "\ue2a1": 677,
      "\ue2a2": 678,
      "\ue2a3": 679,
      "\ue2a4": 680,
      "\ue2a5": 681,
      "\ue2a6": 682,
      "\ue2a7": 683,
      "\ue2a8": 684,
      "\ue2a9": 685,
      "\ue2aa": 686,
      "\ue2ab": 687,
      "\ue2ac": 688,
      "\ue2ad": 689,
      "\ue2ae": 690,
      "\ue2af": 691,
      "\ue2b0": 692,
      "\ue2b1": 693,
      "\ue2b2": 694,
      "\ue2b3": 695,
      "\ue2b4": 696,
      "\ue2b5": 697,
      "\ue2b6": 698,
      "\ue2b7": 699,
      "\ue2b8": 700,
      "\ue2b9": 701,
      "\ue2ba": 702,
      "\ue2bb": 703,
      "\ue2bc": 704,
      "\ue2bd": 705,
      "\ue2be": 706,
      "\ue2bf": 707,
      "\ue2c0": 708,
      "\ue2c1": 709,
      "\ue2c2": 710,
      "\ue2c3": 711,
      "\ue2c4": 712,
      "\ue2c5": 713,
      "\ue2c6": 714,
      "\ue2c7": 715,
      "\ue2c8": 716,
      "\ue2c9": 717,
      "\ue2ca": 718,
      "\ue2cb": 719,
      "\ue2cc": 720,
      "\ue2cd": 721,
      "\ue2ce": 722,
      "\ue2cf": 723,
      "\ue2d0": 724,
      "\ue2d1": 725,
      "\ue2d2": 726,
      "\ue2d3": 727,
      "\ue2d4": 728,
      "\ue2d5": 729,
      "\ue2d6": 730,
      "\ue2d7": 731,
      "\ue2d8": 732,
      "\ue2d9": 733,
      "\ue2da": 734,
      "\ue2db": 735,
      "\ue2dc": 736,
      "\ue2dd": 737,
      "\ue2de": 738,
      "\ue2df": 739,
      "\ue2e0": 740,
      "\ue2e1": 741,
      "\ue2e2": 742,
      "\ue2e3": 743,
      "\ue2e4": 744,
      "\ue2e5": 745,
      "\ue2e6": 746,
      "\ue2e7": 747,
      "\ue2e8": 748,
      "\ue2e9": 749,
      "\ue2ea": 750,
      "\ue2eb": 751,
      "\ue2ec": 752,
      "\ue2ed": 753,
      "\ue2ee": 754,
      "\ue2ef": 755,
      "\ue2f0": 756,
      "\ue2f1": 757,
      "\ue2f2": 758,
      "\ue2f3": 759,
      "\ue2f4": 760,
      "\ue2f5": 761,
      "\ue2f6": 762,
      "\ue2f7": 763,
      "\ue2f8": 764,
      "\ue2f9": 765,
      "\ue2fa": 766,
      "\ue2fb": 767,
      "\ue2fc": 768,
      "\ue2fd": 769,
      "\ue2fe": 770,
      "\ue2ff": 771,
      "\ue300": 772,
      "\ue301": 773,
      "\ue302": 774,
      "\ue303": 775,
      "\ue304": 776,
      "\ue305": 777,
      "\ue306": 778,
      "\ue307": 779,
      "\ue308": 780,
      "\ue309": 781,
      "\ue30a": 782,
      "\ue30b": 783,
      "\ue30c": 784,
      "\ue30d": 785,
      "\ue30e": 786,
      "\ue30f": 787,
      "\ue310": 788,
      "\ue311": 789,
      "\ue312": 790,
      "\ue313": 791,
      "\ue314": 792,
      "\ue315": 793,
      "\ue316": 794,
      "\ue317": 795,
      "\ue318": 796,
      "\ue319": 797,
      "\ue31a": 798,
      "\ue31b": 799,
      "\ue31c": 800,
      "\ue31d": 801,
      "\ue31e": 802,
      "\ue31f": 803,
      "\ue320": 804,
      "\ue321": 805,
      "\ue322": 806,
      "\ue323": 807,
      "\ue324": 808,
      "\ue325": 809,
      "\ue326": 810,
      "\ue327": 811,
      "\ue328": 812,
      "\ue329": 813,
      "\ue32a": 814,
      "\ue32b": 815,
      "\ue32c": 816,
      "\ue32d": 817,
      "\ue32e": 818,
      "\ue32f": 819,
      "\ue330": 820,
      "\ue331": 821,
      "\ue332": 822,
      "\ue333": 823,
      "\ue334": 824,
      "\ue335": 825,
      "\ue336": 826,
      "\ue337": 827,
      "\ue338": 828,
      "\ue339": 829,
      "\ue33a": 830,
      "\ue33b": 831,
      "\ue33c": 832,
      "\ue33d": 833,
      "\ue33e": 834,
      "\ue33f": 835,
      "\ue340": 836,
      "\ue341": 837,
      "\ue342": 838,
      "\ue343": 839,
      "\ue344": 840,
      "\ue345": 841,
      "\ue346": 842,
      "\ue347": 843,
      "\ue348": 844,
      "\ue349": 845,
      "\ue34a": 846,
      "\ue34b": 847,
      "\ue34c": 848,
      "\ue34d": 849,
      "\ue34e": 850,
      "\ue34f": 851,
      "\ue350": 852,
      "\ue351": 853,
      "\ue352": 854,
      "\ue353": 855,
      "\ue354": 856,
      "\ue355": 857,
      "\ue356": 858,
      "\ue357": 859,
      "\ue358": 860,
      "\ue359": 861,
      "\ue35a": 862,
      "\ue35b": 863,
      "\ue35c": 864,
      "\ue35d": 865,
      "\ue35e": 866,
      "\ue35f": 867,
      "\ue360": 868,
      "\ue361": 869,
      "\ue362": 870,
      "\ue363": 871,
      "\ue364": 872,
      "\ue365": 873,
      "\ue366": 874,
      "\ue367": 875,
      "\ue368": 876,
      "\ue369": 877,
      "\ue36a": 878,
      "\ue36b": 879,
      "\ue36c": 880,
      "\ue36d": 881,
      "\ue36e": 882,
      "\ue36f": 883,
      "\ue370": 884,
      "\ue371": 885,
      "\ue372": 886,
      "\ue373": 887,
      "\ue374": 888,
      "\ue375": 889,
      "\ue376": 890,
      "\ue377": 891,
      "\ue378": 892,
      "\ue379": 893,
      "\ue37a": 894,
      "\ue37b": 895,
      "\ue37c": 896,
      "\ue37d": 897,
      "\ue37e": 898,
      "\ue37f": 899,
      "\ue380": 900,
      "\ue381": 901,
      "\ue382": 902,
      "\ue383": 903,
      "\ue384": 904,
      "\ue385": 905,
      "\ue386": 906,
      "\ue387": 907,
      "\ue388": 908,
      "\ue389": 909,
      "\ue38a": 910,
      "\ue38b": 911,
      "\ue38c": 912,
      "\ue38d": 913,
      "\ue38e": 914,
      "\ue38f": 915,
      "\ue390": 916,
      "\ue391": 917,
      "\ue392": 918,
      "\ue393": 919,
      "\ue394": 920,
      "\ue395": 921,
      "\ue396": 922,
      "\ue397": 923,
      "\ue398": 924,
      "\ue399": 925,
      "\ue39a": 926,
      "\ue39b": 927,
      "\ue39c": 928,
      "\ue39d": 929,
      "\ue39e": 930,
      "\ue39f": 931,
      "\ue3a0": 932,
      "\ue3a1": 933,
      "\ue3a2": 934,
      "\ue3a3": 935,
      "\ue3a4": 936,
      "\ue3a5": 937,
      "\ue3a6": 938,
      "\ue3a7": 939,
      "\ue3a8": 940,
      "\ue3a9": 941,
      "\ue3aa": 942,
      "\ue3ab": 943,
      "\ue3ac": 944,
      "\ue3ad": 945,
      "\ue3ae": 946,
      "\ue3af": 947,
      "\ue3b0": 948,
      "\ue3b1": 949,
      "\ue3b2": 950,
      "\ue3b3": 951,
      "\ue3b4": 952,
      "\ue3b5": 953,
      "\ue3b6": 954,
      "\ue3b7": 955,
      "\ue3b8": 956,
      "\ue3b9": 957,
      "\ue3ba": 958,
      "\ue3bb": 959,
      "\ue3bc": 960,
      "\ue3bd": 961,
      "\ue3be": 962,
      "\ue3bf": 963,
      "\ue3c0": 964,
      "\ue3c1": 965,
      "\ue3c2": 966,
      "\ue3c3": 967,
      "\ue3c4": 968,
      "\ue3c5": 969,
      "\ue3c6": 970,
      "\ue3c7": 971,
      "\ue3c8": 972,
      "\ue3c9": 973,
      "\ue3ca": 974,
      "\ue3cb": 975,
      "\ue3cc": 976,
      "\ue3cd": 977,
      "\ue3ce": 978,
      "\ue3cf": 979,
      "\ue3d0": 980,
      "\ue3d1": 981,
      "\ue3d2": 982,
      "\ue3d3": 983,
      "\ue3d4": 984,
      "\ue3d5": 985,
      "\ue3d6": 986,
      "\ue3d7": 987,
      "\ue3d8": 988,
      "\ue3d9": 989,
      "\ue3da": 990,
      "\ue3db": 991,
      "\ue3dc": 992,
      "\ue3dd": 993,
      "\ue3de": 994,
      "\ue3df": 995,
      "\ue3e0": 996,
      "\ue3e1": 997,
      "\ue3e2": 998,
      "\ue3e3": 999,
      "\ue3e4": 1000,
      "\ue3e5": 1001,
      "\ue3e6": 1002,
      "\ue3e7": 1003,
      "\ue3e8": 1004,
      "\ue3e9": 1005,
      "\ue3ea": 1006,
      "\ue3eb": 1007,
      "\ue3ec": 1008,
      "\ue3ed": 1009,
      "\ue3ee": 1010,
      "\ue3ef": 1011,
      "\ue3f0": 1012,
      "\ue3f1": 1013,
      "\ue3f2": 1014,
      "\ue3f3": 1015,
      "\ue3f4": 1016,
      "\ue3f5": 1017,
      "\ue3f6": 1018,
      "\ue3f7": 1019,
      "\ue3f8": 1020,
      "\ue3f9": 1021,
      "\ue3fa": 1022,
      "\ue3fb": 1023,
      "\ue3fc": 1024,
      "\ue3fd": 1025,
      "\ue3fe": 1026,
      "\ue3ff": 1027,
      "\ue400": 1028,
      "\ue401": 1029,
      "\ue402": 1030,
      "\ue403": 1031,
      "\ue404": 1032,
      "\ue405": 1033,
      "\ue406": 1034,
      "\ue407": 1035,
      "\ue408": 1036,
      "\ue409": 1037,
      "\ue40a": 1038,
      "\ue40b": 1039,
      "\ue40c": 1040,
      "\ue40d": 1041,
      "\ue40e": 1042,
      "\ue40f": 1043,
      "\ue410": 1044,
      "\ue411": 1045,
      "\ue412": 1046,
      "\ue413": 1047,
      "\ue414": 1048,
      "\ue415": 1049,
      "\ue416": 1050,
      "\ue417": 1051,
      "\ue418": 1052,
      "\ue419": 1053,
      "\ue41a": 1054,
      "\ue41b": 1055,
      "\ue41c": 1056,
      "\ue41d": 1057,
      "\ue41e": 1058,
      "\ue41f": 1059,
      "\ue420": 1060,
      "\ue421": 1061,
      "\ue422": 1062,
      "\ue423": 1063,
      "\ue424": 1064,
      "\ue425": 1065,
      "\ue426": 1066,
      "\ue427": 1067,
      "\ue428": 1068,
      "\ue429": 1069,
      "\ue42a": 1070,
      "\ue42b": 1071,
      "\ue42c": 1072,
      "\ue42d": 1073,
      "\ue42e": 1074,
      "\ue42f": 1075,
      "\ue430": 1076,
      "\ue431": 1077,
      "\ue432": 1078,
      "\ue433": 1079,
      "\ue434": 1080,
      "\ue435": 1081,
      "\ue436": 1082,
      "\ue437": 1083,
      "\ue438": 1084,
      "\ue439": 1085,
      "\ue43a": 1086,
      "\ue43b": 1087,
      "\ue43c": 1088,
      "\ue43d": 1089,
      "\ue43e": 1090,
      "\ue43f": 1091,
      "\ue440": 1092,
      "\ue441": 1093,
      "\ue442": 1094,
      "\ue443": 1095,
      "\ue444": 1096,
      "\ue445": 1097,
      "\ue446": 1098,
      "\ue447": 1099,
      "\ue448": 1100,
      "\ue449": 1101,
      "\ue44a": 1102,
      "\ue44b": 1103,
      "\ue44c": 1104,
      "\ue44d": 1105,
      "\ue44e": 1106,
      "\ue44f": 1107,
      "\ue450": 1108,
      "\ue451": 1109,
      "\ue452": 1110,
      "\ue453": 1111,
      "\ue454": 1112,
      "\ue455": 1113,
      "\ue456": 1114,
      "\ue457": 1115,
      "\ue458": 1116,
      "\ue459": 1117,
      "\ue45a": 1118,
      "\ue45b": 1119,
      "\ue45c": 1120,
      "\ue45d": 1121,
      "\ue45e": 1122,
      "\ue45f": 1123,
      "\ue460": 1124,
      "\ue461": 1125,
      "\ue462": 1126,
      "\ue463": 1127,
      "\ue464": 1128,
      "\ue465": 1129,
      "\ue466": 1130,
      "\ue467": 1131,
      "\ue468": 1132,
      "\ue469": 1133,
      "\ue46a": 1134,
      "\ue46b": 1135,
      "\ue46c": 1136,
      "\ue46d": 1137,
      "\ue46e": 1138,
      "\ue46f": 1139,
      "\ue470": 1140,
      "\ue471": 1141,
      "\ue472": 1142,
      "\ue473": 1143,
      "\ue474": 1144,
      "\ue475": 1145,
      "\ue476": 1146,
      "\ue477": 1147,
      "\ue478": 1148,
      "\ue479": 1149,
      "\ue47a": 1150,
      "\ue47b": 1151,
      "\ue47c": 1152,
      "\ue47d": 1153,
      "\ue47e": 1154,
      "\ue47f": 1155,
      "\ue480": 1156,
      "\ue481": 1157,
      "\ue482": 1158,
      "\ue483": 1159,
      "\ue484": 1160,
      "\ue485": 1161,
      "\ue486": 1162,
      "\ue487": 1163,
      "\ue488": 1164,
      "\ue489": 1165,
      "\ue48a": 1166,
      "\ue48b": 1167,
      "\ue48c": 1168,
      "\ue48d": 1169,
      "\ue48e": 1170,
      "\ue48f": 1171,
      "\ue490": 1172,
      "\ue491": 1173,
      "\ue492": 1174,
      "\ue493": 1175,
      "\ue494": 1176,
      "\ue495": 1177,
      "\ue496": 1178,
      "\ue497": 1179,
      "\ue498": 1180,
      "\ue499": 1181,
      "\ue49a": 1182,
      "\ue49b": 1183,
      "\ue49c": 1184,
      "\ue49d": 1185,
      "\ue49e": 1186,
      "\ue49f": 1187,
      "\ue4a0": 1188,
      "\ue4a1": 1189,
      "\ue4a2": 1190,
      "\ue4a3": 1191,
      "\ue4a4": 1192,
      "\ue4a5": 1193,
      "\ue4a6": 1194,
      "\ue4a7": 1195,
      "\ue4a8": 1196,
      "\ue4a9": 1197,
      "\ue4aa": 1198,
      "\ue4ab": 1199,
      "\ue4ac": 1200,
      "\ue4ad": 1201,
      "\ue4ae": 1202,
      "\ue4af": 1203,
      "\ue4b0": 1204,
      "\ue4b1": 1205,
      "\ue4b2": 1206,
      "\ue4b3": 1207,
      "\ue4b4": 1208,
      "\ue4b5": 1209,
      "\ue4b6": 1210,
      "\ue4b7": 1211,
      "\ue4b8": 1212,
      "\ue4b9": 1213,
      "\ue4ba": 1214,
      "\ue4bb": 1215,
      "\ue4bc": 1216,
      "\ue4bd": 1217,
      "\ue4be": 1218,
      "\ue4bf": 1219,
      "\ue4c0": 1220,
      "\ue4c1": 1221,
      "\ue4c2": 1222,
      "\ue4c3": 1223,
      "\ue4c4": 1224,
      "\ue4c5": 1225,
      "\ue4c6": 1226,
      "\ue4c7": 1227,
      "\ue4c8": 1228,
      "\ue4c9": 1229,
      "\ue4ca": 1230,
      "\ue4cb": 1231,
      "\ue4cc": 1232,
      "\ue4cd": 1233,
      "\ue4ce": 1234,
      "\ue4cf": 1235,
      "\ue4d0": 1236,
      "\ue4d1": 1237,
      "\ue4d2": 1238,
      "\ue4d3": 1239,
      "\ue4d4": 1240,
      "\ue4d5": 1241,
      "\ue4d6": 1242,
      "\ue4d7": 1243,
      "\ue4d8": 1244,
      "\ue4d9": 1245,
      "\ue4da": 1246,
      "\ue4db": 1247,
      "\ue4dc": 1248,
      "\ue4dd": 1249,
      "\ue4de": 1250,
      "\ue4df": 1251,
      "\ue4e0": 1252,
      "\ue4e1": 1253,
      "\ue4e2": 1254,
      "\ue4e3": 1255,
      "\ue4e4": 1256,
      "\ue4e5": 1257,
      "\ue4e6": 1258,
      "\ue4e7": 1259,
      "\ue4e8": 1260,
      "\ue4e9": 1261,
      "\ue4ea": 1262,
      "\ue4eb": 1263,
      "\ue4ec": 1264,
      "\ue4ed": 1265,
      "\ue4ee": 1266,
      "\ue4ef": 1267,
      "\ue4f0": 1268,
      "\ue4f1": 1269,
      "\ue4f2": 1270,
      "\ue4f3": 1271,
      "\ue4f4": 1272,
      "\ue4f5": 1273,
      "\ue4f6": 1274,
      "\ue4f7": 1275,
      "\ue4f8": 1276,
      "\ue4f9": 1277,
      "\ue4fa": 1278,
      "\ue4fb": 1279,
      "\ue4fc": 1280,
      "\ue4fd": 1281,
      "\ue4fe": 1282,
      "\ue4ff": 1283,
      "\ue500": 1284,
      "\ue501": 1285,
      "\ue502": 1286,
      "\ue503": 1287,
      "\ue504": 1288,
      "\ue505": 1289,
      "\ue506": 1290,
      "\ue507": 1291,
      "\ue508": 1292,
      "\ue509": 1293,
      "\ue50a": 1294,
      "\ue50b": 1295,
      "\ue50c": 1296,
      "\ue50d": 1297,
      "\ue50e": 1298,
      "\ue50f": 1299,
      "\ue510": 1300,
      "\ue511": 1301,
      "\ue512": 1302,
      "\ue513": 1303,
      "\ue514": 1304,
      "\ue515": 1305,
      "\ue516": 1306,
      "\ue517": 1307,
      "\ue518": 1308,
      "\ue519": 1309,
      "\ue51a": 1310,
      "\ue51b": 1311,
      "\ue51c": 1312,
      "\ue51d": 1313,
      "\ue51e": 1314,
      "\ue51f": 1315,
      "\ue520": 1316,
      "\ue521": 1317,
      "\ue522": 1318,
      "\ue523": 1319,
      "\ue524": 1320,
      "\ue525": 1321,
      "\ue526": 1322,
      "\ue527": 1323,
      "\ue528": 1324,
      "\ue529": 1325,
      "\ue52a": 1326,
      "\ue52b": 1327,
      "\ue52c": 1328,
      "\ue52d": 1329,
      "\ue52e": 1330,
      "\ue52f": 1331,
      "\ue530": 1332,
      "\ue531": 1333,
      "\ue532": 1334,
      "\ue533": 1335,
      "\ue534": 1336,
      "\ue535": 1337,
      "\ue536": 1338,
      "\ue537": 1339,
      "\ue538": 1340,
      "\ue539": 1341,
      "\ue53a": 1342,
      "\ue53b": 1343,
      "\ue53c": 1344,
      "\ue53d": 1345,
      "\ue53e": 1346,
      "\ue53f": 1347,
      "\ue540": 1348,
      "\ue541": 1349,
      "\ue542": 1350,
      "\ue543": 1351,
      "\ue544": 1352,
      "\ue545": 1353,
      "\ue546": 1354,
      "\ue547": 1355,
      "\ue548": 1356,
      "\ue549": 1357,
      "\ue54a": 1358,
      "\ue54b": 1359,
      "\ue54c": 1360,
      "\ue54d": 1361,
      "\ue54e": 1362,
      "\ue54f": 1363,
      "\ue550": 1364,
      "\ue551": 1365,
      "\ue552": 1366,
      "\ue553": 1367,
      "\ue554": 1368,
      "\ue555": 1369,
      "\ue556": 1370,
      "\ue557": 1371,
      "\ue558": 1372,
      "\ue559": 1373,
      "\ue55a": 1374,
      "\ue55b": 1375,
      "\ue55c": 1376,
      "\ue55d": 1377,
      "\ue55e": 1378,
      "\ue55f": 1379,
      "\ue560": 1380,
      "\ue561": 1381,
      "\ue562": 1382,
      "\ue563": 1383,
      "\ue564": 1384,
      "\ue565": 1385,
      "\ue566": 1386,
      "\ue567": 1387,
      "\ue568": 1388,
      "\ue569": 1389,
      "\ue56a": 1390,
      "\ue56b": 1391,
      "\ue56c": 1392,
      "\ue56d": 1393,
      "\ue56e": 1394,
      "\ue56f": 1395,
      "\ue570": 1396,
      "\ue571": 1397,
      "\ue572": 1398,
      "\ue573": 1399,
      "\ue574": 1400,
      "\ue575": 1401,
      "\ue576": 1402,
      "\ue577": 1403,
      "\ue578": 1404,
      "\ue579": 1405,
      "\ue57a": 1406,
      "\ue57b": 1407,
      "\ue57c": 1408,
      "\ue57d": 1409,
      "\ue57e": 1410,
      "\ue57f": 1411,
      "\ue580": 1412,
      "\ue581": 1413,
      "\ue582": 1414,
      "\ue583": 1415,
      "\ue584": 1416,
      "\ue585": 1417,
      "\ue586": 1418,
      "\ue587": 1419,
      "\ue588": 1420,
      "\ue589": 1421,
      "\ue58a": 1422,
      "\ue58b": 1423,
      "\ue58c": 1424,
      "\ue58d": 1425,
      "\ue58e": 1426,
      "\ue58f": 1427,
      "\ue590": 1428,
      "\ue591": 1429,
      "\ue592": 1430,
      "\ue593": 1431,
      "\ue594": 1432,
      "\ue595": 1433,
      "\ue596": 1434,
      "\ue597": 1435,
      "\ue598": 1436,
      "\ue599": 1437,
      "\ue59a": 1438,
      "\ue59b": 1439,
      "\ue59c": 1440,
      "\ue59d": 1441,
      "\ue59e": 1442,
      "\ue59f": 1443,
      "\ue5a0": 1444,
      "\ue5a1": 1445,
      "\ue5a2": 1446,
      "\ue5a3": 1447,
      "\ue5a4": 1448,
      "\ue5a5": 1449,
      "\ue5a6": 1450,
      "\ue5a7": 1451,
      "\ue5a8": 1452,
      "\ue5a9": 1453,
      "\ue5aa": 1454,
      "\ue5ab": 1455,
      "\ue5ac": 1456,
      "\ue5ad": 1457,
      "\ue5ae": 1458,
      "\ue5af": 1459,
      "\ue5b0": 1460,
      "\ue5b1": 1461,
      "\ue5b2": 1462,
      "\ue5b3": 1463,
      "\ue5b4": 1464,
      "\ue5b5": 1465,
      "\ue5b6": 1466,
      "\ue5b7": 1467,
      "\ue5b8": 1468,
      "\ue5b9": 1469,
      "\ue5ba": 1470,
      "\ue5bb": 1471,
      "\ue5bc": 1472,
      "\ue5bd": 1473,
      "\ue5be": 1474,
      "\ue5bf": 1475,
      "\ue5c0": 1476,
      "\ue5c1": 1477,
      "\ue5c2": 1478,
      "\ue5c3": 1479,
      "\ue5c4": 1480,
      "\ue5c5": 1481,
      "\ue5c6": 1482,
      "\ue5c7": 1483,
      "\ue5c8": 1484,
      "\ue5c9": 1485,
      "\ue5ca": 1486,
      "\ue5cb": 1487,
      "\ue5cc": 1488,
      "\ue5cd": 1489,
      "\ue5ce": 1490,
      "\ue5cf": 1491,
      "\ue5d0": 1492,
      "\ue5d1": 1493,
      "\ue5d2": 1494,
      "\ue5d3": 1495,
      "\ue5d4": 1496,
      "\ue5d5": 1497,
      "\ue5d6": 1498,
      "\ue5d7": 1499,
      "\ue5d8": 1500,
      "\ue5d9": 1501,
      "\ue5da": 1502,
      "\ue5db": 1503,
      "\ue5dc": 1504,
      "\ue5dd": 1505,
      "\ue5de": 1506,
      "\ue5df": 1507,
      "\ue5e0": 1508,
      "\ue5e1": 1509,
      "\ue5e2": 1510,
      "\ue5e3": 1511,
      "\ue5e4": 1512,
      "\ue5e5": 1513,
      "\ue5e6": 1514,
      "\ue5e7": 1515,
      "\ue5e8": 1516,
      "\ue5e9": 1517,
      "\ue5ea": 1518,
      "\ue5eb": 1519,
      "\ue5ec": 1520,
      "\ue5ed": 1521,
      "\ue5ee": 1522,
      "\ue5ef": 1523,
      "\ue5f0": 1524,
      "\ue5f1": 1525,
      "\ue5f2": 1526,
      "\ue5f3": 1527,
      "\ue5f4": 1528,
      "\ue5f5": 1529,
      "\ue5f6": 1530,
      "\ue5f7": 1531,
      "\ue5f8": 1532,
      "\ue5f9": 1533,
      "\ue5fa": 1534,
      "\ue5fb": 1535,
      "\ue5fc": 1536,
      "\ue5fd": 1537,
      "\ue5fe": 1538,
      "\ue5ff": 1539,
      "\ue600": 1540,
      "\ue601": 1541,
      "\ue602": 1542,
      "\ue603": 1543,
      "\ue604": 1544,
      "\ue605": 1545,
      "\ue606": 1546,
      "\ue607": 1547,
      "\ue608": 1548,
      "\ue609": 1549,
      "\ue60a": 1550,
      "\ue60b": 1551,
      "\ue60c": 1552,
      "\ue60d": 1553,
      "\ue60e": 1554,
      "\ue60f": 1555,
      "\ue610": 1556,
      "\ue611": 1557,
      "\ue612": 1558,
      "\ue613": 1559,
      "\ue614": 1560,
      "\ue615": 1561,
      "\ue616": 1562,
      "\ue617": 1563,
      "\ue618": 1564,
      "\ue619": 1565,
      "\ue61a": 1566,
      "\ue61b": 1567,
      "\ue61c": 1568,
      "\ue61d": 1569,
      "\ue61e": 1570,
      "\ue61f": 1571,
      "\ue620": 1572,
      "\ue621": 1573,
      "\ue622": 1574,
      "\ue623": 1575,
      "\ue624": 1576,
      "\ue625": 1577,
      "\ue626": 1578,
      "\ue627": 1579,
      "\ue628": 1580,
      "\ue629": 1581,
      "\ue62a": 1582,
      "\ue62b": 1583,
      "\ue62c": 1584,
      "\ue62d": 1585,
      "\ue62e": 1586,
      "\ue62f": 1587,
      "\ue630": 1588,
      "\ue631": 1589,
      "\ue632": 1590,
      "\ue633": 1591,
      "\ue634": 1592,
      "\ue635": 1593,
      "\ue636": 1594,
      "\ue637": 1595,
      "\ue638": 1596,
      "\ue639": 1597,
      "\ue63a": 1598,
      "\ue63b": 1599,
      "\ue63c": 1600,
      "\ue63d": 1601,
      "\ue63e": 1602,
      "\ue63f": 1603,
      "\ue640": 1604,
      "\ue641": 1605,
      "\ue642": 1606,
      "\ue643": 1607,
      "\ue644": 1608,
      "\ue645": 1609,
      "\ue646": 1610,
      "\ue647": 1611,
      "\ue648": 1612,
      "\ue649": 1613,
      "\ue64a": 1614,
      "\ue64b": 1615,
      "\ue64c": 1616,
      "\ue64d": 1617,
      "\ue64e": 1618,
      "\ue64f": 1619,
      "\ue650": 1620,
      "\ue651": 1621,
      "\ue652": 1622,
      "\ue653": 1623,
      "\ue654": 1624,
      "\ue655": 1625,
      "\ue656": 1626,
      "\ue657": 1627,
      "\ue658": 1628,
      "\ue659": 1629,
      "\ue65a": 1630,
      "\ue65b": 1631,
      "\ue65c": 1632,
      "\ue65d": 1633,
      "\ue65e": 1634,
      "\ue65f": 1635,
      "\ue660": 1636,
      "\ue661": 1637,
      "\ue662": 1638,
      "\ue663": 1639,
      "\ue664": 1640,
      "\ue665": 1641,
      "\ue666": 1642,
      "\ue667": 1643,
      "\ue668": 1644,
      "\ue669": 1645,
      "\ue66a": 1646,
      "\ue66b": 1647,
      "\ue66c": 1648,
      "\ue66d": 1649,
      "\ue66e": 1650,
      "\ue66f": 1651,
      "\ue670": 1652,
      "\ue671": 1653,
      "\ue672": 1654,
      "\ue673": 1655,
      "\ue674": 1656,
      "\ue675": 1657,
      "\ue676": 1658,
      "\ue677": 1659,
      "\ue678": 1660,
      "\ue679": 1661,
      "\ue67a": 1662,
      "\ue67b": 1663,
      "\ue67c": 1664,
      "\ue67d": 1665,
      "\ue67e": 1666,
      "\ue67f": 1667,
      "\ue680": 1668,
      "\ue681": 1669,
      "\ue682": 1670,
      "\ue683": 1671,
      "\ue684": 1672,
      "\ue685": 1673,
      "\ue686": 1674,
      "\ue687": 1675,
      "\ue688": 1676,
      "\ue689": 1677,
      "\ue68a": 1678,
      "\ue68b": 1679,
      "\ue68c": 1680,
      "\ue68d": 1681,
      "\ue68e": 1682,
      "\ue68f": 1683,
      "\ue690": 1684,
      "\ue691": 1685,
      "\ue692": 1686,
      "\ue693": 1687,
      "\ue694": 1688,
      "\ue695": 1689,
      "\ue696": 1690,
      "\ue697": 1691,
      "\ue698": 1692,
      "\ue699": 1693,
      "\ue69a": 1694,
      "\ue69b": 1695,
      "\ue69c": 1696,
      "\ue69d": 1697,
      "\ue69e": 1698,
      "\ue69f": 1699,
      "\ue6a0": 1700,
      "\ue6a1": 1701,
      "\ue6a2": 1702,
      "\ue6a3": 1703,
      "\ue6a4": 1704,
      "\ue6a5": 1705,
      "\ue6a6": 1706,
      "\ue6a7": 1707,
      "\ue6a8": 1708,
      "\ue6a9": 1709,
      "\ue6aa": 1710,
      "\ue6ab": 1711,
      "\ue6ac": 1712,
      "\ue6ad": 1713,
      "\ue6ae": 1714,
      "\ue6af": 1715,
      "\ue6b0": 1716,
      "\ue6b1": 1717,
      "\ue6b2": 1718,
      "\ue6b3": 1719,
      "\ue6b4": 1720,
      "\ue6b5": 1721,
      "\ue6b6": 1722,
      "\ue6b7": 1723,
      "\ue6b8": 1724,
      "\ue6b9": 1725,
      "\ue6ba": 1726,
      "\ue6bb": 1727,
      "\ue6bc": 1728,
      "\ue6bd": 1729,
      "\ue6be": 1730,
      "\ue6bf": 1731,
      "\ue6c0": 1732,
      "\ue6c1": 1733,
      "\ue6c2": 1734,
      "\ue6c3": 1735,
      "\ue6c4": 1736,
      "\ue6c5": 1737,
      "\ue6c6": 1738,
      "\ue6c7": 1739,
      "\ue6c8": 1740,
      "\ue6c9": 1741,
      "\ue6ca": 1742,
      "\ue6cb": 1743,
      "\ue6cc": 1744,
      "\ue6cd": 1745,
      "\ue6ce": 1746,
      "\ue6cf": 1747,
      "\ue6d0": 1748,
      "\ue6d1": 1749,
      "\ue6d2": 1750,
      "\ue6d3": 1751,
      "\ue6d4": 1752,
      "\ue6d5": 1753,
      "\ue6d6": 1754,
      "\ue6d7": 1755,
      "\ue6d8": 1756,
      "\ue6d9": 1757,
      "\ue6da": 1758,
      "\ue6db": 1759,
      "\ue6dc": 1760,
      "\ue6dd": 1761,
      "\ue6de": 1762,
      "\ue6df": 1763,
      "\ue6e0": 1764,
      "\ue6e1": 1765,
      "\ue6e2": 1766,
      "\ue6e3": 1767,
      "\ue6e4": 1768,
      "\ue6e5": 1769,
      "\ue6e6": 1770,
      "\ue6e7": 1771,
      "\ue6e8": 1772,
      "\ue6e9": 1773,
      "\ue6ea": 1774,
      "\ue6eb": 1775,
      "\ue6ec": 1776,
      "\ue6ed": 1777,
      "\ue6ee": 1778,
      "\ue6ef": 1779,
      "\ue6f0": 1780,
      "\ue6f1": 1781,
      "\ue6f2": 1782,
      "\ue6f3": 1783,
      "\ue6f4": 1784,
      "\ue6f5": 1785,
      "\ue6f6": 1786,
      "\ue6f7": 1787,
      "\ue6f8": 1788,
      "\ue6f9": 1789,
      "\ue6fa": 1790,
      "\ue6fb": 1791,
      "\ue6fc": 1792,
      "\ue6fd": 1793,
      "\ue6fe": 1794,
      "\ue6ff": 1795,
      "\ue700": 1796,
      "\ue701": 1797,
      "\ue702": 1798,
      "\ue703": 1799,
      "\ue704": 1800,
      "\ue705": 1801,
      "\ue706": 1802,
      "\ue707": 1803,
      "\ue708": 1804,
      "\ue709": 1805,
      "\ue70a": 1806,
      "\ue70b": 1807,
      "\ue70c": 1808,
      "\ue70d": 1809,
      "\ue70e": 1810,
      "\ue70f": 1811,
      "\ue710": 1812,
      "\ue711": 1813,
      "\ue712": 1814,
      "\ue713": 1815,
      "\ue714": 1816,
      "\ue715": 1817,
      "\ue716": 1818,
      "\ue717": 1819,
      "\ue718": 1820,
      "\ue719": 1821,
      "\ue71a": 1822,
      "\ue71b": 1823,
      "\ue71c": 1824,
      "\ue71d": 1825,
      "\ue71e": 1826,
      "\ue71f": 1827,
      "\ue720": 1828,
      "\ue721": 1829,
      "\ue722": 1830,
      "\ue723": 1831,
      "\ue724": 1832,
      "\ue725": 1833,
      "\ue726": 1834,
      "\ue727": 1835,
      "\ue728": 1836,
      "\ue729": 1837,
      "\ue72a": 1838,
      "\ue72b": 1839,
      "\ue72c": 1840,
      "\ue72d": 1841,
      "\ue72e": 1842,
      "\ue72f": 1843,
      "\ue730": 1844,
      "\ue731": 1845,
      "\ue732": 1846,
      "\ue733": 1847,
      "\ue734": 1848,
      "\ue735": 1849,
      "\ue736": 1850,
      "\ue737": 1851,
      "\ue738": 1852,
      "\ue739": 1853,
      "\ue73a": 1854,
      "\ue73b": 1855,
      "\ue73c": 1856,
      "\ue73d": 1857,
      "\ue73e": 1858,
      "\ue73f": 1859,
      "\ue740": 1860,
      "\ue741": 1861,
      "\ue742": 1862,
      "\ue743": 1863,
      "\ue744": 1864,
      "\ue745": 1865,
      "\ue746": 1866,
      "\ue747": 1867,
      "\ue748": 1868,
      "\ue749": 1869,
      "\ue74a": 1870,
      "\ue74b": 1871,
      "\ue74c": 1872,
      "\ue74d": 1873,
      "\ue74e": 1874,
      "\ue74f": 1875,
      "\ue750": 1876,
      "\ue751": 1877,
      "\ue752": 1878,
      "\ue753": 1879,
      "\ue754": 1880,
      "\ue755": 1881,
      "\ue756": 1882,
      "\ue757": 1883,
      "\ue758": 1884,
      "\ue759": 1885,
      "\ue75a": 1886,
      "\ue75b": 1887,
      "\ue75c": 1888,
      "\ue75d": 1889,
      "\ue75e": 1890,
      "\ue75f": 1891,
      "\ue760": 1892,
      "\ue761": 1893,
      "\ue762": 1894,
      "\ue763": 1895,
      "\ue764": 1896,
      "\ue765": 1897,
      "\ue766": 1898,
      "\ue767": 1899,
      "\ue768": 1900,
      "\ue769": 1901,
      "\ue76a": 1902,
      "\ue76b": 1903,
      "\ue76c": 1904,
      "\ue76d": 1905,
      "\ue76e": 1906,
      "\ue76f": 1907,
      "\ue770": 1908,
      "\ue771": 1909,
      "\ue772": 1910,
      "\ue773": 1911,
      "\ue774": 1912,
      "\ue775": 1913,
      "\ue776": 1914,
      "\ue777": 1915,
      "\ue778": 1916,
      "\ue779": 1917,
      "\ue77a": 1918,
      "\ue77b": 1919,
      "\ue77c": 1920,
      "\ue77d": 1921,
      "\ue77e": 1922,
      "\ue77f": 1923,
      "\ue780": 1924,
      "\ue781": 1925,
      "\ue782": 1926,
      "\ue783": 1927,
      "\ue784": 1928,
      "\ue785": 1929,
      "\ue786": 1930,
      "\ue787": 1931,
      "\ue788": 1932,
      "\ue789": 1933,
      "\ue78a": 1934,
      "\ue78b": 1935,
      "\ue78c": 1936,
      "\ue78d": 1937,
      "\ue78e": 1938,
      "\ue78f": 1939,
      "\ue790": 1940,
      "\ue791": 1941,
      "\ue792": 1942,
      "\ue793": 1943,
      "\ue794": 1944,
      "\ue795": 1945,
      "\ue796": 1946,
      "\ue797": 1947,
      "\ue798": 1948,
      "\ue799": 1949,
      "\ue79a": 1950,
      "\ue79b": 1951,
      "\ue79c": 1952,
      "\ue79d": 1953,
      "\ue79e": 1954,
      "\ue79f": 1955,
      "\ue7a0": 1956,
      "\ue7a1": 1957,
      "\ue7a2": 1958,
      "\ue7a3": 1959,
      "\ue7a4": 1960,
      "\ue7a5": 1961,
      "\ue7a6": 1962,
      "\ue7a7": 1963,
      "\ue7a8": 1964,
      "\ue7a9": 1965,
      "\ue7aa": 1966,
      "\ue7ab": 1967,
      "\ue7ac": 1968,
      "\ue7ad": 1969,
      "\ue7ae": 1970,
      "\ue7af": 1971,
      "\ue7b0": 1972,
      "\ue7b1": 1973,
      "\ue7b2": 1974,
      "\ue7b3": 1975,
      "\ue7b4": 1976,
      "\ue7b5": 1977,
      "\ue7b6": 1978,
      "\ue7b7": 1979,
      "\ue7b8": 1980,
      "\ue7b9": 1981,
      "\ue7ba": 1982,
      "\ue7bb": 1983,
      "\ue7bc": 1984,
      "\ue7bd": 1985,
      "\ue7be": 1986,
      "\ue7bf": 1987,
      "\ue7c0": 1988,
      "\ue7c1": 1989,
      "\ue7c2": 1990,
      "\ue7c3": 1991,
      "\ue7c4": 1992,
      "\ue7c5": 1993,
      "\ue7c6": 1994,
      "\ue7c7": 1995,
      "\ue7c8": 1996,
      "\ue7c9": 1997,
      "\ue7ca": 1998,
      "\ue7cb": 1999,
      "\ue7cc": 2000,
      "\ue7cd": 2001,
      "\ue7ce": 2002,
      "\ue7cf": 2003,
      "\ue7d0": 2004,
      "\ue7d1": 2005,
      "\ue7d2": 2006,
      "\ue7d3": 2007,
      "\ue7d4": 2008,
      "\ue7d5": 2009,
      "\ue7d6": 2010,
      "\ue7d7": 2011,
      "\ue7d8": 2012,
      "\ue7d9": 2013,
      "\ue7da": 2014,
      "\ue7db": 2015,
      "\ue7dc": 2016,
      "\ue7dd": 2017,
      "\ue7de": 2018,
      "\ue7df": 2019,
      "\ue7e0": 2020,
      "\ue7e1": 2021,
      "\ue7e2": 2022,
      "\ue7e3": 2023,
      "\ue7e4": 2024,
      "\ue7e5": 2025,
      "\ue7e6": 2026,
      "\ue7e7": 2027,
      "\ue7e8": 2028,
      "\ue7e9": 2029,
      "\ue7ea": 2030,
      "\ue7eb": 2031,
      "\ue7ec": 2032,
      "\ue7ed": 2033,
      "\ue7ee": 2034,
      "\ue7ef": 2035,
      "\ue7f0": 2036,
      "\ue7f1": 2037,
      "\ue7f2": 2038,
      "\ue7f3": 2039,
      "\ue7f4": 2040,
      "\ue7f5": 2041,
      "\ue7f6": 2042,
      "\ue7f7": 2043,
      "\ue7f8": 2044,
      "\ue7f9": 2045,
      "\ue7fa": 2046,
      "\ue7fb": 2047,
      "\ue7fc": 2048,
      "\ue7fd": 2049,
      "\ue7fe": 2050,
      "\ue7ff": 2051,
      "\ue800": 2052,
      "\ue801": 2053,
      "\ue802": 2054,
      "\ue803": 2055,
      "\ue804": 2056,
      "\ue805": 2057,
      "\ue806": 2058,
      "\ue807": 2059,
      "\ue808": 2060,
      "\ue809": 2061,
      "\ue80a": 2062,
      "\ue80b": 2063,
      "\ue80c": 2064,
      "\ue80d": 2065,
      "\ue80e": 2066,
      "\ue80f": 2067,
      "\ue810": 2068,
      "\ue811": 2069,
      "\ue812": 2070,
      "\ue813": 2071,
      "\ue814": 2072,
      "\ue815": 2073,
      "\ue816": 2074,
      "\ue817": 2075,
      "\ue818": 2076,
      "\ue819": 2077,
      "\ue81a": 2078,
      "\ue81b": 2079,
      "\ue81c": 2080,
      "\ue81d": 2081,
      "\ue81e": 2082,
      "\ue81f": 2083,
      "\ue820": 2084,
      "\ue821": 2085,
      "\ue822": 2086,
      "\ue823": 2087,
      "\ue824": 2088,
      "\ue825": 2089,
      "\ue826": 2090,
      "\ue827": 2091,
      "\ue828": 2092,
      "\ue829": 2093,
      "\ue82a": 2094,
      "\ue82b": 2095,
      "\ue82c": 2096,
      "\ue82d": 2097,
      "\ue82e": 2098,
      "\ue82f": 2099,
      "\ue830": 2100,
      "\ue831": 2101,
      "\ue832": 2102,
      "\ue833": 2103,
      "\ue834": 2104,
      "\ue835": 2105,
      "\ue836": 2106,
      "\ue837": 2107,
      "\ue838": 2108,
      "\ue839": 2109,
      "\ue83a": 2110,
      "\ue83b": 2111,
      "\ue83c": 2112,
      "\ue83d": 2113,
      "\ue83e": 2114,
      "\ue83f": 2115,
      "\ue840": 2116,
      "\ue841": 2117,
      "\ue842": 2118,
      "\ue843": 2119,
      "\ue844": 2120,
      "\ue845": 2121,
      "\ue846": 2122,
      "\ue847": 2123,
      "\ue848": 2124,
      "\ue849": 2125,
      "\ue84a": 2126,
      "\ue84b": 2127,
      "\ue84c": 2128,
      "\ue84d": 2129,
      "\ue84e": 2130,
      "\ue84f": 2131,
      "\ue850": 2132,
      "\ue851": 2133,
      "\ue852": 2134,
      "\ue853": 2135,
      "\ue854": 2136,
      "\ue855": 2137,
      "\ue856": 2138,
      "\ue857": 2139,
      "\ue858": 2140,
      "\ue859": 2141,
      "\ue85a": 2142,
      "\ue85b": 2143,
      "\ue85c": 2144,
      "\ue85d": 2145,
      "\ue85e": 2146,
      "\ue85f": 2147,
      "\ue860": 2148,
      "\ue861": 2149,
      "\ue862": 2150,
      "\ue863": 2151,
      "\ue864": 2152,
      "\ue865": 2153,
      "\ue866": 2154,
      "\ue867": 2155,
      "\ue868": 2156,
      "\ue869": 2157,
      "\ue86a": 2158,
      "\ue86b": 2159,
      "\ue86c": 2160,
      "\ue86d": 2161,
      "\ue86e": 2162,
      "\ue86f": 2163,
      "\ue870": 2164,
      "\ue871": 2165,
      "\ue872": 2166,
      "\ue873": 2167,
      "\ue874": 2168,
      "\ue875": 2169,
      "\ue876": 2170,
      "\ue877": 2171,
      "\ue878": 2172,
      "\ue879": 2173,
      "\ue87a": 2174,
      "\ue87b": 2175,
      "\ue87c": 2176,
      "\ue87d": 2177,
      "\ue87e": 2178,
      "\ue87f": 2179,
      "\ue880": 2180,
      "\ue881": 2181,
      "\ue882": 2182,
      "\ue883": 2183,
      "\ue884": 2184,
      "\ue885": 2185,
      "\ue886": 2186,
      "\ue887": 2187,
      "\ue888": 2188,
      "\ue889": 2189,
      "\ue88a": 2190,
      "\ue88b": 2191,
      "\ue88c": 2192,
      "\ue88d": 2193,
      "\ue88e": 2194,
      "\ue88f": 2195,
      "\ue890": 2196,
      "\ue891": 2197,
      "\ue892": 2198,
      "\ue893": 2199,
      "\ue894": 2200,
      "\ue895": 2201,
      "\ue896": 2202,
      "\ue897": 2203,
      "\ue898": 2204,
      "\ue899": 2205,
      "\ue89a": 2206,
      "\ue89b": 2207,
      "\ue89c": 2208,
      "\ue89d": 2209,
      "\ue89e": 2210,
      "\ue89f": 2211,
      "\ue8a0": 2212,
      "\ue8a1": 2213,
      "\ue8a2": 2214,
      "\ue8a3": 2215,
      "\ue8a4": 2216,
      "\ue8a5": 2217,
      "\ue8a6": 2218,
      "\ue8a7": 2219,
      "\ue8a8": 2220,
      "\ue8a9": 2221,
      "\ue8aa": 2222,
      "\ue8ab": 2223,
      "\ue8ac": 2224,
      "\ue8ad": 2225,
      "\ue8ae": 2226,
      "\ue8af": 2227,
      "\ue8b0": 2228,
      "\ue8b1": 2229,
      "\ue8b2": 2230,
      "\ue8b3": 2231,
      "\ue8b4": 2232,
      "\ue8b5": 2233,
      "\ue8b6": 2234,
      "\ue8b7": 2235,
      "\ue8b8": 2236,
      "\ue8b9": 2237,
      "\ue8ba": 2238,
      "\ue8bb": 2239,
      "\ue8bc": 2240,
      "\ue8bd": 2241,
      "\ue8be": 2242,
      "\ue8bf": 2243,
      "\ue8c0": 2244,
      "\ue8c1": 2245,
      "\ue8c2": 2246,
      "\ue8c3": 2247,
      "\ue8c4": 2248,
      "\ue8c5": 2249,
      "\ue8c6": 2250,
      "\ue8c7": 2251,
      "\ue8c8": 2252,
      "\ue8c9": 2253,
      "\ue8ca": 2254,
      "\ue8cb": 2255,
      "\ue8cc": 2256,
      "\ue8cd": 2257,
      "\ue8ce": 2258,
      "\ue8cf": 2259,
      "\ue8d0": 2260,
      "\ue8d1": 2261,
      "\ue8d2": 2262,
      "\ue8d3": 2263,
      "\ue8d4": 2264,
      "\ue8d5": 2265,
      "\ue8d6": 2266,
      "\ue8d7": 2267,
      "\ue8d8": 2268,
      "\ue8d9": 2269,
      "\ue8da": 2270,
      "\ue8db": 2271,
      "\ue8dc": 2272,
      "\ue8dd": 2273,
      "\ue8de": 2274,
      "\ue8df": 2275,
      "\ue8e0": 2276,
      "\ue8e1": 2277,
      "\ue8e2": 2278,
      "\ue8e3": 2279,
      "\ue8e4": 2280,
      "\ue8e5": 2281,
      "\ue8e6": 2282,
      "\ue8e7": 2283,
      "\ue8e8": 2284,
      "\ue8e9": 2285,
      "\ue8ea": 2286,
      "\ue8eb": 2287,
      "\ue8ec": 2288,
      "\ue8ed": 2289,
      "\ue8ee": 2290,
      "\ue8ef": 2291,
      "\ue8f0": 2292,
      "\ue8f1": 2293,
      "\ue8f2": 2294,
      "\ue8f3": 2295,
      "\ue8f4": 2296,
      "\ue8f5": 2297,
      "\ue8f6": 2298,
      "\ue8f7": 2299,
      "\ue8f8": 2300,
      "\ue8f9": 2301,
      "\ue8fa": 2302,
      "\ue8fb": 2303,
      "\ue8fc": 2304,
      "\ue8fd": 2305,
      "\ue8fe": 2306,
      "\ue8ff": 2307,
      "\ue900": 2308,
      "\ue901": 2309,
      "\ue902": 2310,
      "\ue903": 2311,
      "\ue904": 2312,
      "\ue905": 2313,
      "\ue906": 2314,
      "\ue907": 2315,
      "\ue908": 2316,
      "\ue909": 2317,
      "\ue90a": 2318,
      "\ue90b": 2319,
      "\ue90c": 2320,
      "\ue90d": 2321,
      "\ue90e": 2322,
      "\ue90f": 2323,
      "\ue910": 2324,
      "\ue911": 2325,
      "\ue912": 2326,
      "\ue913": 2327,
      "\ue914": 2328,
      "\ue915": 2329,
      "\ue916": 2330,
      "\ue917": 2331,
      "\ue918": 2332,
      "\ue919": 2333,
      "\ue91a": 2334,
      "\ue91b": 2335,
      "\ue91c": 2336,
      "\ue91d": 2337,
      "\ue91e": 2338,
      "\ue91f": 2339,
      "\ue920": 2340,
      "\ue921": 2341,
      "\ue922": 2342,
      "\ue923": 2343,
      "\ue924": 2344,
      "\ue925": 2345,
      "\ue926": 2346,
      "\ue927": 2347,
      "\ue928": 2348,
      "\ue929": 2349,
      "\ue92a": 2350,
      "\ue92b": 2351,
      "\ue92c": 2352,
      "\ue92d": 2353,
      "\ue92e": 2354,
      "\ue92f": 2355,
      "\ue930": 2356,
      "\ue931": 2357,
      "\ue932": 2358,
      "\ue933": 2359,
      "\ue934": 2360,
      "\ue935": 2361,
      "\ue936": 2362,
      "\ue937": 2363,
      "\ue938": 2364,
      "\ue939": 2365,
      "\ue93a": 2366,
      "\ue93b": 2367,
      "\ue93c": 2368,
      "\ue93d": 2369,
      "\ue93e": 2370,
      "\ue93f": 2371,
      "\ue940": 2372,
      "\ue941": 2373,
      "\ue942": 2374,
      "\ue943": 2375,
      "\ue944": 2376,
      "\ue945": 2377,
      "\ue946": 2378,
      "\ue947": 2379,
      "\ue948": 2380,
      "\ue949": 2381,
      "\ue94a": 2382,
      "\ue94b": 2383,
      "\ue94c": 2384,
      "\ue94d": 2385,
      "\ue94e": 2386,
      "\ue94f": 2387,
      "\ue950": 2388,
      "\ue951": 2389,
      "\ue952": 2390,
      "\ue953": 2391,
      "\ue954": 2392,
      "\ue955": 2393,
      "\ue956": 2394,
      "\ue957": 2395,
      "\ue958": 2396,
      "\ue959": 2397,
      "\ue95a": 2398,
      "\ue95b": 2399,
      "\ue95c": 2400,
      "\ue95d": 2401,
      "\ue95e": 2402,
      "\ue95f": 2403,
      "\ue960": 2404,
      "\ue961": 2405,
      "\ue962": 2406,
      "\ue963": 2407,
      "\ue964": 2408,
      "\ue965": 2409,
      "\ue966": 2410,
      "\ue967": 2411,
      "\ue968": 2412,
      "\ue969": 2413,
      "\ue96a": 2414,
      "\ue96b": 2415,
      "\ue96c": 2416,
      "\ue96d": 2417,
      "\ue96e": 2418,
      "\ue96f": 2419,
      "\ue970": 2420,
      "\ue971": 2421,
      "\ue972": 2422,
      "\ue973": 2423,
      "\ue974": 2424,
      "\ue975": 2425,
      "\ue976": 2426,
      "\ue977": 2427,
      "\ue978": 2428,
      "\ue979": 2429,
      "\ue97a": 2430,
      "\ue97b": 2431,
      "\ue97c": 2432,
      "\ue97d": 2433,
      "\ue97e": 2434,
      "\ue97f": 2435,
      "\ue980": 2436,
      "\ue981": 2437,
      "\ue982": 2438,
      "\ue983": 2439,
      "\ue984": 2440,
      "\ue985": 2441,
      "\ue986": 2442,
      "\ue987": 2443,
      "\ue988": 2444,
      "\ue989": 2445,
      "\ue98a": 2446,
      "\ue98b": 2447,
      "\ue98c": 2448,
      "\ue98d": 2449,
      "\ue98e": 2450,
      "\ue98f": 2451,
      "\ue990": 2452,
      "\ue991": 2453,
      "\ue992": 2454,
      "\ue993": 2455,
      "\ue994": 2456,
      "\ue995": 2457,
      "\ue996": 2458,
      "\ue997": 2459,
      "\ue998": 2460,
      "\ue999": 2461,
      "\ue99a": 2462,
      "\ue99b": 2463,
      "\ue99c": 2464,
      "\ue99d": 2465,
      "\ue99e": 2466,
      "\ue99f": 2467,
      "\ue9a0": 2468,
      "\ue9a1": 2469,
      "\ue9a2": 2470,
      "\ue9a3": 2471,
      "\ue9a4": 2472,
      "\ue9a5": 2473,
      "\ue9a6": 2474,
      "\ue9a7": 2475,
      "\ue9a8": 2476,
      "\ue9a9": 2477,
      "\ue9aa": 2478,
      "\ue9ab": 2479,
      "\ue9ac": 2480,
      "\ue9ad": 2481,
      "\ue9ae": 2482,
      "\ue9af": 2483,
      "\ue9b0": 2484,
      "\ue9b1": 2485,
      "\ue9b2": 2486,
      "\ue9b3": 2487,
      "\ue9b4": 2488,
      "\ue9b5": 2489,
      "\ue9b6": 2490,
      "\ue9b7": 2491,
      "\ue9b8": 2492,
      "\ue9b9": 2493,
      "\ue9ba": 2494,
      "\ue9bb": 2495,
      "\ue9bc": 2496,
      "\ue9bd": 2497,
      "\ue9be": 2498,
      "\ue9bf": 2499,
      "\ue9c0": 2500,
      "\ue9c1": 2501,
      "\ue9c2": 2502,
      "\ue9c3": 2503,
      "\ue9c4": 2504,
      "\ue9c5": 2505,
      "\ue9c6": 2506,
      "\ue9c7": 2507,
      "\ue9c8": 2508,
      "\ue9c9": 2509,
      "\ue9ca": 2510,
      "\ue9cb": 2511,
      "\ue9cc": 2512,
      "\ue9cd": 2513,
      "\ue9ce": 2514,
      "\ue9cf": 2515,
      "\ue9d0": 2516,
      "\ue9d1": 2517,
      "\ue9d2": 2518,
      "\ue9d3": 2519,
      "\ue9d4": 2520,
      "\ue9d5": 2521,
      "\ue9d6": 2522,
      "\ue9d7": 2523,
      "\ue9d8": 2524,
      "\ue9d9": 2525,
      "\ue9da": 2526,
      "\ue9db": 2527,
      "\ue9dc": 2528,
      "\ue9dd": 2529,
      "\ue9de": 2530,
      "\ue9df": 2531,
      "\ue9e0": 2532,
      "\ue9e1": 2533,
      "\ue9e2": 2534,
      "\ue9e3": 2535,
      "\ue9e4": 2536,
      "\ue9e5": 2537,
      "\ue9e6": 2538,
      "\ue9e7": 2539,
      "\ue9e8": 2540,
      "\ue9e9": 2541,
      "\ue9ea": 2542,
      "\ue9eb": 2543,
      "\ue9ec": 2544,
      "\ue9ed": 2545,
      "\ue9ee": 2546,
      "\ue9ef": 2547,
      "\ue9f0": 2548,
      "\ue9f1": 2549,
      "\ue9f2": 2550,
      "\ue9f3": 2551,
      "\ue9f4": 2552,
      "\ue9f5": 2553,
      "\ue9f6": 2554,
      "\ue9f7": 2555,
      "\ue9f8": 2556,
      "\ue9f9": 2557,
      "\ue9fa": 2558,
      "\ue9fb": 2559,
      "\ue9fc": 2560,
      "\ue9fd": 2561,
      "\ue9fe": 2562,
      "\ue9ff": 2563,
      "\uea00": 2564,
      "\uea01": 2565,
      "\uea02": 2566,
      "\uea03": 2567,
      "\uea04": 2568,
      "\uea05": 2569,
      "\uea06": 2570,
      "\uea07": 2571,
      "\uea08": 2572,
      "\uea09": 2573,
      "\uea0a": 2574,
      "\uea0b": 2575,
      "\uea0c": 2576,
      "\uea0d": 2577,
      "\uea0e": 2578,
      "\uea0f": 2579,
      "\uea10": 2580,
      "\uea11": 2581,
      "\uea12": 2582,
      "\uea13": 2583,
      "\uea14": 2584,
      "\uea15": 2585,
      "\uea16": 2586,
      "\uea17": 2587,
      "\uea18": 2588,
      "\uea19": 2589,
      "\uea1a": 2590,
      "\uea1b": 2591,
      "\uea1c": 2592,
      "\uea1d": 2593,
      "\uea1e": 2594,
      "\uea1f": 2595,
      "\uea20": 2596,
      "\uea21": 2597,
      "\uea22": 2598,
      "\uea23": 2599,
      "\uea24": 2600,
      "\uea25": 2601,
      "\uea26": 2602,
      "\uea27": 2603,
      "\uea28": 2604,
      "\uea29": 2605,
      "\uea2a": 2606,
      "\uea2b": 2607,
      "\uea2c": 2608,
      "\uea2d": 2609,
      "\uea2e": 2610,
      "\uea2f": 2611,
      "\uea30": 2612,
      "\uea31": 2613,
      "\uea32": 2614,
      "\uea33": 2615,
      "\uea34": 2616,
      "\uea35": 2617,
      "\uea36": 2618,
      "\uea37": 2619,
      "\uea38": 2620,
      "\uea39": 2621,
      "\uea3a": 2622,
      "\uea3b": 2623,
      "\uea3c": 2624,
      "\uea3d": 2625,
      "\uea3e": 2626,
      "\uea3f": 2627,
      "\uea40": 2628,
      "\uea41": 2629,
      "\uea42": 2630,
      "\uea43": 2631,
      "\uea44": 2632,
      "\uea45": 2633,
      "\uea46": 2634,
      "\uea47": 2635,
      "\uea48": 2636,
      "\uea49": 2637,
      "\uea4a": 2638,
      "\uea4b": 2639,
      "\uea4c": 2640,
      "\uea4d": 2641,
      "\uea4e": 2642,
      "\uea4f": 2643,
      "\uea50": 2644,
      "\uea51": 2645,
      "\uea52": 2646,
      "\uea53": 2647,
      "\uea54": 2648,
      "\uea55": 2649,
      "\uea56": 2650,
      "\uea57": 2651,
      "\uea58": 2652,
      "\uea59": 2653,
      "\uea5a": 2654,
      "\uea5b": 2655,
      "\uea5c": 2656,
      "\uea5d": 2657,
      "\uea5e": 2658,
      "\uea5f": 2659,
      "\uea60": 2660,
      "\uea61": 2661,
      "\uea62": 2662,
      "\uea63": 2663,
      "\uea64": 2664,
      "\uea65": 2665,
      "\uea66": 2666,
      "\uea67": 2667,
      "\uea68": 2668,
      "\uea69": 2669,
      "\uea6a": 2670,
      "\uea6b": 2671,
      "\uea6c": 2672,
      "\uea6d": 2673,
      "\uea6e": 2674,
      "\uea6f": 2675,
      "\uea70": 2676,
      "\uea71": 2677,
      "\uea72": 2678,
      "\uea73": 2679,
      "\uea74": 2680,
      "\uea75": 2681,
      "\uea76": 2682,
      "\uea77": 2683,
      "\uea78": 2684,
      "\uea79": 2685,
      "\uea7a": 2686,
      "\uea7b": 2687,
      "\uea7c": 2688,
      "\uea7d": 2689,
      "\uea7e": 2690,
      "\uea7f": 2691,
      "\uea80": 2692,
      "\uea81": 2693,
      "\uea82": 2694,
      "\uea83": 2695,
      "\uea84": 2696,
      "\uea85": 2697,
      "\uea86": 2698,
      "\uea87": 2699,
      "\uea88": 2700,
      "\uea89": 2701,
      "\uea8a": 2702,
      "\uea8b": 2703,
      "\uea8c": 2704,
      "\uea8d": 2705,
      "\uea8e": 2706,
      "\uea8f": 2707,
      "\uea90": 2708,
      "\uea91": 2709,
      "\uea92": 2710,
      "\uea93": 2711,
      "\uea94": 2712,
      "\uea95": 2713,
      "\uea96": 2714,
      "\uea97": 2715,
      "\uea98": 2716,
      "\uea99": 2717,
      "\uea9a": 2718,
      "\uea9b": 2719,
      "\uea9c": 2720,
      "\uea9d": 2721,
      "\uea9e": 2722,
      "\uea9f": 2723,
      "\ueaa0": 2724,
      "\ueaa1": 2725,
      "\ueaa2": 2726,
      "\ueaa3": 2727,
      "\ueaa4": 2728,
      "\ueaa5": 2729,
      "\ueaa6": 2730,
      "\ueaa7": 2731,
      "\ueaa8": 2732,
      "\ueaa9": 2733,
      "\ueaaa": 2734,
      "\ueaab": 2735,
      "\ueaac": 2736,
      "\ueaad": 2737,
      "\ueaae": 2738,
      "\ueaaf": 2739,
      "\ueab0": 2740,
      "\ueab1": 2741,
      "\ueab2": 2742,
      "\ueab3": 2743,
      "\ueab4": 2744,
      "\ueab5": 2745,
      "\ueab6": 2746,
      "\ueab7": 2747,
      "\ueab8": 2748,
      "\ueab9": 2749,
      "\ueaba": 2750,
      "\ueabb": 2751,
      "\ueabc": 2752,
      "\ueabd": 2753,
      "\ueabe": 2754,
      "\ueabf": 2755,
      "\ueac0": 2756,
      "\ueac1": 2757,
      "\ueac2": 2758,
      "\ueac3": 2759,
      "\ueac4": 2760,
      "\ueac5": 2761,
      "\ueac6": 2762,
      "\ueac7": 2763,
      "\ueac8": 2764,
      "\ueac9": 2765,
      "\ueaca": 2766,
      "\ueacb": 2767,
      "\ueacc": 2768,
      "\ueacd": 2769,
      "\ueace": 2770,
      "\ueacf": 2771,
      "\uead0": 2772,
      "\uead1": 2773,
      "\uead2": 2774,
      "\uead3": 2775,
      "\uead4": 2776,
      "\uead5": 2777,
      "\uead6": 2778,
      "\uead7": 2779,
      "\uead8": 2780,
      "\uead9": 2781,
      "\ueada": 2782,
      "\ueadb": 2783,
      "\ueadc": 2784,
      "\ueadd": 2785,
      "\ueade": 2786,
      "\ueadf": 2787,
      "\ueae0": 2788,
      "\ueae1": 2789,
      "\ueae2": 2790,
      "\ueae3": 2791,
      "\ueae4": 2792,
      "\ueae5": 2793,
      "\ueae6": 2794,
      "\ueae7": 2795,
      "\ueae8": 2796,
      "\ueae9": 2797,
      "\ueaea": 2798,
      "\ueaeb": 2799,
      "\ueaec": 2800,
      "\ueaed": 2801,
      "\ueaee": 2802,
      "\ueaef": 2803,
      "\ueaf0": 2804,
      "\ueaf1": 2805,
      "\ueaf2": 2806,
      "\ueaf3": 2807,
      "\ueaf4": 2808,
      "\ueaf5": 2809,
      "\ueaf6": 2810,
      "\ueaf7": 2811,
      "\ueaf8": 2812,
      "\ueaf9": 2813,
      "\ueafa": 2814,
      "\ueafb": 2815,
      "\ueafc": 2816,
      "\ueafd": 2817,
      "\ueafe": 2818,
      "\ueaff": 2819,
      "\ueb00": 2820,
      "\ueb01": 2821,
      "\ueb02": 2822,
      "\ueb03": 2823,
      "\ueb04": 2824,
      "\ueb05": 2825,
      "\ueb06": 2826,
      "\ueb07": 2827,
      "\ueb08": 2828,
      "\ueb09": 2829,
      "\ueb0a": 2830,
      "\ueb0b": 2831,
      "\ueb0c": 2832,
      "\ueb0d": 2833,
      "\ueb0e": 2834,
      "\ueb0f": 2835,
      "\ueb10": 2836,
      "\ueb11": 2837,
      "\ueb12": 2838,
      "\ueb13": 2839,
      "\ueb14": 2840,
      "\ueb15": 2841,
      "\ueb16": 2842,
      "\ueb17": 2843,
      "\ueb18": 2844,
      "\ueb19": 2845,
      "\ueb1a": 2846,
      "\ueb1b": 2847,
      "\ueb1c": 2848,
      "\ueb1d": 2849,
      "\ueb1e": 2850,
      "\ueb1f": 2851,
      "\ueb20": 2852,
      "\ueb21": 2853,
      "\ueb22": 2854,
      "\ueb23": 2855,
      "\ueb24": 2856,
      "\ueb25": 2857,
      "\ueb26": 2858,
      "\ueb27": 2859,
      "\ueb28": 2860,
      "\ueb29": 2861,
      "\ueb2a": 2862,
      "\ueb2b": 2863,
      "\ueb2c": 2864,
      "\ueb2d": 2865,
      "\ueb2e": 2866,
      "\ueb2f": 2867,
      "\ueb30": 2868,
      "\ueb31": 2869,
      "\ueb32": 2870,
      "\ueb33": 2871,
      "\ueb34": 2872,
      "\ueb35": 2873,
      "\ueb36": 2874,
      "\ueb37": 2875,
      "\ueb38": 2876,
      "\ueb39": 2877,
      "\ueb3a": 2878,
      "\ueb3b": 2879,
      "\ueb3c": 2880,
      "\ueb3d": 2881,
      "\ueb3e": 2882,
      "\ueb3f": 2883,
      "\ueb40": 2884,
      "\ueb41": 2885,
      "\ueb42": 2886,
      "\ueb43": 2887,
      "\ueb44": 2888,
      "\ueb45": 2889,
      "\ueb46": 2890,
      "\ueb47": 2891,
      "\ueb48": 2892,
      "\ueb49": 2893,
      "\ueb4a": 2894,
      "\ueb4b": 2895,
      "\ueb4c": 2896,
      "\ueb4d": 2897,
      "\ueb4e": 2898,
      "\ueb4f": 2899,
      "\ueb50": 2900,
      "\ueb51": 2901,
      "\ueb52": 2902,
      "\ueb53": 2903,
      "\ueb54": 2904,
      "\ueb55": 2905,
      "\ueb56": 2906,
      "\ueb57": 2907,
      "\ueb58": 2908,
      "\ueb59": 2909,
      "\ueb5a": 2910,
      "\ueb5b": 2911,
      "\ueb5c": 2912,
      "\ueb5d": 2913,
      "\ueb5e": 2914,
      "\ueb5f": 2915,
      "\ueb60": 2916,
      "\ueb61": 2917,
      "\ueb62": 2918,
      "\ueb63": 2919,
      "\ueb64": 2920,
      "\ueb65": 2921,
      "\ueb66": 2922,
      "\ueb67": 2923,
      "\ueb68": 2924,
      "\ueb69": 2925,
      "\ueb6a": 2926,
      "\ueb6b": 2927,
      "\ueb6c": 2928,
      "\ueb6d": 2929,
      "\ueb6e": 2930,
      "\ueb6f": 2931,
      "\ueb70": 2932,
      "\ueb71": 2933,
      "\ueb72": 2934,
      "\ueb73": 2935,
      "\ueb74": 2936,
      "\ueb75": 2937,
      "\ueb76": 2938,
      "\ueb77": 2939,
      "\ueb78": 2940,
      "\ueb79": 2941,
      "\ueb7a": 2942,
      "\ueb7b": 2943,
      "\ueb7c": 2944,
      "\ueb7d": 2945,
      "\ueb7e": 2946,
      "\ueb7f": 2947,
      "\ueb80": 2948,
      "\ueb81": 2949,
      "\ueb82": 2950,
      "\ueb83": 2951,
      "\ueb84": 2952,
      "\ueb85": 2953,
      "\ueb86": 2954,
      "\ueb87": 2955,
      "\ueb88": 2956,
      "\ueb89": 2957,
      "\ueb8a": 2958,
      "\ueb8b": 2959,
      "\ueb8c": 2960,
      "\ueb8d": 2961,
      "\ueb8e": 2962,
      "\ueb8f": 2963,
      "\ueb90": 2964,
      "\ueb91": 2965,
      "\ueb92": 2966,
      "\ueb93": 2967,
      "\ueb94": 2968,
      "\ueb95": 2969,
      "\ueb96": 2970,
      "\ueb97": 2971,
      "\ueb98": 2972,
      "\ueb99": 2973,
      "\ueb9a": 2974,
      "\ueb9b": 2975,
      "\ueb9c": 2976,
      "\ueb9d": 2977,
      "\ueb9e": 2978,
      "\ueb9f": 2979,
      "\ueba0": 2980,
      "\ueba1": 2981,
      "\ueba2": 2982,
      "\ueba3": 2983,
      "\ueba4": 2984,
      "\ueba5": 2985,
      "\ueba6": 2986,
      "\ueba7": 2987,
      "\ueba8": 2988,
      "\ueba9": 2989,
      "\uebaa": 2990,
      "\uebab": 2991,
      "\uebac": 2992,
      "\uebad": 2993,
      "\uebae": 2994,
      "\uebaf": 2995,
      "\uebb0": 2996,
      "\uebb1": 2997,
      "\uebb2": 2998,
      "\uebb3": 2999,
      "\uebb4": 3000,
      "\uebb5": 3001,
      "\uebb6": 3002,
      "\uebb7": 3003,
      "\uebb8": 3004,
      "\uebb9": 3005,
      "\uebba": 3006,
      "\uebbb": 3007,
      "\uebbc": 3008,
      "\uebbd": 3009,
      "\uebbe": 3010,
      "\uebbf": 3011,
      "\uebc0": 3012,
      "\uebc1": 3013,
      "\uebc2": 3014,
      "\uebc3": 3015,
      "\uebc4": 3016,
      "\uebc5": 3017,
      "\uebc6": 3018,
      "\uebc7": 3019,
      "\uebc8": 3020,
      "\uebc9": 3021,
      "\uebca": 3022,
      "\uebcb": 3023,
      "\uebcc": 3024,
      "\uebcd": 3025,
      "\uebce": 3026,
      "\uebcf": 3027,
      "\uebd0": 3028,
      "\uebd1": 3029,
      "\uebd2": 3030,
      "\uebd3": 3031,
      "\uebd4": 3032,
      "\uebd5": 3033,
      "\uebd6": 3034,
      "\uebd7": 3035,
      "\uebd8": 3036,
      "\uebd9": 3037,
      "\uebda": 3038,
      "\uebdb": 3039,
      "\uebdc": 3040,
      "\uebdd": 3041,
      "\uebde": 3042,
      "\uebdf": 3043,
      "\uebe0": 3044,
      "\uebe1": 3045,
      "\uebe2": 3046,
      "\uebe3": 3047,
      "\uebe4": 3048,
      "\uebe5": 3049,
      "\uebe6": 3050,
      "\uebe7": 3051,
      "\uebe8": 3052,
      "\uebe9": 3053,
      "\uebea": 3054,
      "\uebeb": 3055,
      "\uebec": 3056,
      "\uebed": 3057,
      "\uebee": 3058,
      "\uebef": 3059,
      "\uebf0": 3060,
      "\uebf1": 3061,
      "\uebf2": 3062,
      "\uebf3": 3063,
      "\uebf4": 3064,
      "\uebf5": 3065,
      "\uebf6": 3066,
      "\uebf7": 3067,
      "\uebf8": 3068,
      "\uebf9": 3069,
      "\uebfa": 3070,
      "\uebfb": 3071,
      "\uebfc": 3072,
      "\uebfd": 3073,
      "\uebfe": 3074,
      "\uebff": 3075,
      "\uec00": 3076,
      "\uec01": 3077,
      "\uec02": 3078,
      "\uec03": 3079,
      "\uec04": 3080,
      "\uec05": 3081,
      "\uec06": 3082,
      "\uec07": 3083,
      "\uec08": 3084,
      "\uec09": 3085,
      "\uec0a": 3086,
      "\uec0b": 3087,
      "\uec0c": 3088,
      "\uec0d": 3089,
      "\uec0e": 3090,
      "\uec0f": 3091,
      "\uec10": 3092,
      "\uec11": 3093,
      "\uec12": 3094,
      "\uec13": 3095,
      "\uec14": 3096,
      "\uec15": 3097,
      "\uec16": 3098,
      "\uec17": 3099,
      "\uec18": 3100,
      "\uec19": 3101,
      "\uec1a": 3102,
      "\uec1b": 3103,
      "\uec1c": 3104,
      "\uec1d": 3105,
      "\uec1e": 3106,
      "\uec1f": 3107,
      "\uec20": 3108,
      "\uec21": 3109,
      "\uec22": 3110,
      "\uec23": 3111,
      "\uec24": 3112,
      "\uec25": 3113,
      "\uec26": 3114,
      "\uec27": 3115,
      "\uec28": 3116,
      "\uec29": 3117,
      "\uec2a": 3118,
      "\uec2b": 3119,
      "\uec2c": 3120,
      "\uec2d": 3121,
      "\uec2e": 3122,
      "\uec2f": 3123,
      "\uec30": 3124,
      "\uec31": 3125,
      "\uec32": 3126,
      "\uec33": 3127,
      "\uec34": 3128,
      "\uec35": 3129,
      "\uec36": 3130,
      "\uec37": 3131,
      "\uec38": 3132,
      "\uec39": 3133,
      "\uec3a": 3134,
      "\uec3b": 3135,
      "\uec3c": 3136,
      "\uec3d": 3137,
      "\uec3e": 3138,
      "\uec3f": 3139,
      "\uec40": 3140,
      "\uec41": 3141,
      "\uec42": 3142,
      "\uec43": 3143,
      "\uec44": 3144,
      "\uec45": 3145,
      "\uec46": 3146,
      "\uec47": 3147,
      "\uec48": 3148,
      "\uec49": 3149,
      "\uec4a": 3150,
      "\uec4b": 3151,
      "\uec4c": 3152,
      "\uec4d": 3153,
      "\uec4e": 3154,
      "\uec4f": 3155,
      "\uec50": 3156,
      "\uec51": 3157,
      "\uec52": 3158,
      "\uec53": 3159,
      "\uec54": 3160,
      "\uec55": 3161,
      "\uec56": 3162,
      "\uec57": 3163,
      "\uec58": 3164,
      "\uec59": 3165,
      "\uec5a": 3166,
      "\uec5b": 3167,
      "\uec5c": 3168,
      "\uec5d": 3169,
      "\uec5e": 3170,
      "\uec5f": 3171,
      "\uec60": 3172,
      "\uec61": 3173,
      "\uec62": 3174,
      "\uec63": 3175,
      "\uec64": 3176,
      "\uec65": 3177,
      "\uec66": 3178,
      "\uec67": 3179,
      "\uec68": 3180,
      "\uec69": 3181,
      "\uec6a": 3182,
      "\uec6b": 3183,
      "\uec6c": 3184,
      "\uec6d": 3185,
      "\uec6e": 3186,
      "\uec6f": 3187,
      "\uec70": 3188,
      "\uec71": 3189,
      "\uec72": 3190,
      "\uec73": 3191,
      "\uec74": 3192,
      "\uec75": 3193,
      "\uec76": 3194,
      "\uec77": 3195,
      "\uec78": 3196,
      "\uec79": 3197,
      "\uec7a": 3198,
      "\uec7b": 3199,
      "\uec7c": 3200,
      "\uec7d": 3201,
      "\uec7e": 3202,
      "\uec7f": 3203,
      "\uec80": 3204,
      "\uec81": 3205,
      "\uec82": 3206,
      "\uec83": 3207,
      "\uec84": 3208,
      "\uec85": 3209,
      "\uec86": 3210,
      "\uec87": 3211,
      "\uec88": 3212,
      "\uec89": 3213,
      "\uec8a": 3214,
      "\uec8b": 3215,
      "\uec8c": 3216,
      "\uec8d": 3217,
      "\uec8e": 3218,
      "\uec8f": 3219,
      "\uec90": 3220,
      "\uec91": 3221,
      "\uec92": 3222,
      "\uec93": 3223,
      "\uec94": 3224,
      "\uec95": 3225,
      "\uec96": 3226,
      "\uec97": 3227,
      "\uec98": 3228,
      "\uec99": 3229,
      "\uec9a": 3230,
      "\uec9b": 3231,
      "\uec9c": 3232,
      "\uec9d": 3233,
      "\uec9e": 3234,
      "\uec9f": 3235,
      "\ueca0": 3236,
      "\ueca1": 3237,
      "\ueca2": 3238,
      "\ueca3": 3239,
      "\ueca4": 3240,
      "\ueca5": 3241,
      "\ueca6": 3242,
      "\ueca7": 3243,
      "\ueca8": 3244,
      "\ueca9": 3245,
      "\uecaa": 3246,
      "\uecab": 3247,
      "\uecac": 3248,
      "\uecad": 3249,
      "\uecae": 3250,
      "\uecaf": 3251,
      "\uecb0": 3252,
      "\uecb1": 3253,
      "\uecb2": 3254,
      "\uecb3": 3255,
      "\uecb4": 3256,
      "\uecb5": 3257,
      "\uecb6": 3258,
      "\uecb7": 3259,
      "\uecb8": 3260,
      "\uecb9": 3261,
      "\uecba": 3262,
      "\uecbb": 3263,
      "\uecbc": 3264,
      "\uecbd": 3265,
      "\uecbe": 3266,
      "\uecbf": 3267,
      "\uecc0": 3268,
      "\uecc1": 3269,
      "\uecc2": 3270,
      "\uecc3": 3271,
      "\uecc4": 3272,
      "\uecc5": 3273,
      "\uecc6": 3274,
      "\uecc7": 3275,
      "\uecc8": 3276,
      "\uecc9": 3277,
      "\uecca": 3278,
      "\ueccb": 3279,
      "\ueccc": 3280,
      "\ueccd": 3281,
      "\uecce": 3282,
      "\ueccf": 3283,
      "\uecd0": 3284,
      "\uecd1": 3285,
      "\uecd2": 3286,
      "\uecd3": 3287,
      "\uecd4": 3288,
      "\uecd5": 3289,
      "\uecd6": 3290,
      "\uecd7": 3291,
      "\uecd8": 3292,
      "\uecd9": 3293,
      "\uecda": 3294,
      "\uecdb": 3295,
      "\uecdc": 3296,
      "\uecdd": 3297,
      "\uecde": 3298,
      "\uecdf": 3299,
      "\uece0": 3300,
      "\uece1": 3301,
      "\uece2": 3302,
      "\uece3": 3303,
      "\uece4": 3304,
      "\uece5": 3305,
      "\uece6": 3306,
      "\uece7": 3307,
      "\uece8": 3308,
      "\uece9": 3309,
      "\uecea": 3310,
      "\ueceb": 3311,
      "\uecec": 3312,
      "\ueced": 3313,
      "\uecee": 3314,
      "\uecef": 3315,
      "\uecf0": 3316,
      "\uecf1": 3317,
      "\uecf2": 3318,
      "\uecf3": 3319,
      "\uecf4": 3320,
      "\uecf5": 3321,
      "\uecf6": 3322,
      "\uecf7": 3323,
      "\uecf8": 3324,
      "\uecf9": 3325,
      "\uecfa": 3326,
      "\uecfb": 3327,
      "\uecfc": 3328,
      "\uecfd": 3329,
      "\uecfe": 3330,
      "\uecff": 3331,
      "\ued00": 3332,
      "\ued01": 3333,
      "\ued02": 3334,
      "\ued03": 3335,
      "\ued04": 3336,
      "\ued05": 3337,
      "\ued06": 3338,
      "\ued07": 3339,
      "\ued08": 3340,
      "\ued09": 3341,
      "\ued0a": 3342,
      "\ued0b": 3343,
      "\ued0c": 3344,
      "\ued0d": 3345,
      "\ued0e": 3346,
      "\ued0f": 3347,
      "\ued10": 3348,
      "\ued11": 3349,
      "\ued12": 3350,
      "\ued13": 3351,
      "\ued14": 3352,
      "\ued15": 3353,
      "\ued16": 3354,
      "\ued17": 3355,
      "\ued18": 3356,
      "\ued19": 3357,
      "\ued1a": 3358,
      "\ued1b": 3359,
      "\ued1c": 3360,
      "\ued1d": 3361,
      "\ued1e": 3362,
      "\ued1f": 3363,
      "\ued20": 3364,
      "\ued21": 3365,
      "\ued22": 3366,
      "\ued23": 3367,
      "\ued24": 3368,
      "\ued25": 3369,
      "\ued26": 3370,
      "\ued27": 3371,
      "\ued28": 3372,
      "\ued29": 3373,
      "\ued2a": 3374,
      "\ued2b": 3375,
      "\ued2c": 3376,
      "\ued2d": 3377,
      "\ued2e": 3378,
      "\ued2f": 3379,
      "\ued30": 3380,
      "\ued31": 3381,
      "\ued32": 3382,
      "\ued33": 3383,
      "\ued34": 3384,
      "\ued35": 3385,
      "\ued36": 3386,
      "\ued37": 3387,
      "\ued38": 3388,
      "\ued39": 3389,
      "\ued3a": 3390,
      "\ued3b": 3391,
      "\ued3c": 3392,
      "\ued3d": 3393,
      "\ued3e": 3394,
      "\ued3f": 3395,
      "\ued40": 3396,
      "\ued41": 3397,
      "\ued42": 3398,
      "\ued43": 3399,
      "\ued44": 3400,
      "\ued45": 3401,
      "\ued46": 3402,
      "\ued47": 3403,
      "\ued48": 3404,
      "\ued49": 3405,
      "\ued4a": 3406,
      "\ued4b": 3407,
      "\ued4c": 3408,
      "\ued4d": 3409,
      "\ued4e": 3410,
      "\ued4f": 3411,
      "\ued50": 3412,
      "\ued51": 3413,
      "\ued52": 3414,
      "\ued53": 3415,
      "\ued54": 3416,
      "\ued55": 3417,
      "\ued56": 3418,
      "\ued57": 3419,
      "\ued58": 3420,
      "\ued59": 3421,
      "\ued5a": 3422,
      "\ued5b": 3423,
      "\ued5c": 3424,
      "\ued5d": 3425,
      "\ued5e": 3426,
      "\ued5f": 3427,
      "\ued60": 3428,
      "\ued61": 3429,
      "\ued62": 3430,
      "\ued63": 3431,
      "\ued64": 3432,
      "\ued65": 3433,
      "\ued66": 3434,
      "\ued67": 3435,
      "\ued68": 3436,
      "\ued69": 3437,
      "\ued6a": 3438,
      "\ued6b": 3439,
      "\ued6c": 3440,
      "\ued6d": 3441,
      "\ued6e": 3442,
      "\ued6f": 3443,
      "\ued70": 3444,
      "\ued71": 3445,
      "\ued72": 3446,
      "\ued73": 3447,
      "\ued74": 3448,
      "\ued75": 3449,
      "\ued76": 3450,
      "\ued77": 3451,
      "\ued78": 3452,
      "\ued79": 3453,
      "\ued7a": 3454,
      "\ued7b": 3455,
      "\ued7c": 3456,
      "\ued7d": 3457,
      "\ued7e": 3458,
      "\ued7f": 3459,
      "\ued80": 3460,
      "\ued81": 3461,
      "\ued82": 3462,
      "\ued83": 3463,
      "\ued84": 3464,
      "\ued85": 3465,
      "\ued86": 3466,
      "\ued87": 3467,
      "\ued88": 3468,
      "\ued89": 3469,
      "\ued8a": 3470,
      "\ued8b": 3471,
      "\ued8c": 3472,
      "\ued8d": 3473,
      "\ued8e": 3474,
      "\ued8f": 3475,
      "\ued90": 3476,
      "\ued91": 3477,
      "\ued92": 3478,
      "\ued93": 3479,
      "\ued94": 3480,
      "\ued95": 3481,
      "\ued96": 3482,
      "\ued97": 3483,
      "\ued98": 3484,
      "\ued99": 3485,
      "\ued9a": 3486,
      "\ued9b": 3487,
      "\ued9c": 3488,
      "\ued9d": 3489,
      "\ued9e": 3490,
      "\ued9f": 3491,
      "\ueda0": 3492,
      "\ueda1": 3493,
      "\ueda2": 3494,
      "\ueda3": 3495,
      "\ueda4": 3496,
      "\ueda5": 3497,
      "\ueda6": 3498,
      "\ueda7": 3499,
      "\ueda8": 3500,
      "\ueda9": 3501,
      "\uedaa": 3502,
      "\uedab": 3503,
      "\uedac": 3504,
      "\uedad": 3505,
      "\uedae": 3506,
      "\uedaf": 3507,
      "\uedb0": 3508,
      "\uedb1": 3509,
      "\uedb2": 3510,
      "\uedb3": 3511,
      "\uedb4": 3512,
      "\uedb5": 3513,
      "\uedb6": 3514,
      "\uedb7": 3515,
      "\uedb8": 3516,
      "\uedb9": 3517,
      "\uedba": 3518,
      "\uedbb": 3519,
      "\uedbc": 3520,
      "\uedbd": 3521,
      "\uedbe": 3522,
      "\uedbf": 3523,
      "\uedc0": 3524,
      "\uedc1": 3525,
      "\uedc2": 3526,
      "\uedc3": 3527,
      "\uedc4": 3528,
      "\uedc5": 3529,
      "\uedc6": 3530,
      "\uedc7": 3531,
      "\uedc8": 3532,
      "\uedc9": 3533,
      "\uedca": 3534,
      "\uedcb": 3535,
      "\uedcc": 3536,
      "\uedcd": 3537,
      "\uedce": 3538,
      "\uedcf": 3539,
      "\uedd0": 3540,
      "\uedd1": 3541,
      "\uedd2": 3542,
      "\uedd3": 3543,
      "\uedd4": 3544,
      "\uedd5": 3545,
      "\uedd6": 3546,
      "\uedd7": 3547,
      "\uedd8": 3548,
      "\uedd9": 3549,
      "\uedda": 3550,
      "\ueddb": 3551,
      "\ueddc": 3552,
      "\ueddd": 3553,
      "\uedde": 3554,
      "\ueddf": 3555,
      "\uede0": 3556,
      "\uede1": 3557,
      "\uede2": 3558,
      "\uede3": 3559,
      "\uede4": 3560,
      "\uede5": 3561,
      "\uede6": 3562,
      "\uede7": 3563,
      "\uede8": 3564,
      "\uede9": 3565,
      "\uedea": 3566,
      "\uedeb": 3567,
      "\uedec": 3568,
      "\ueded": 3569,
      "\uedee": 3570,
      "\uedef": 3571,
      "\uedf0": 3572,
      "\uedf1": 3573,
      "\uedf2": 3574,
      "\uedf3": 3575,
      "\uedf4": 3576,
      "\uedf5": 3577,
      "\uedf6": 3578,
      "\uedf7": 3579,
      "\uedf8": 3580,
      "\uedf9": 3581,
      "\uedfa": 3582,
      "\uedfb": 3583,
      "\uedfc": 3584,
      "\uedfd": 3585,
      "\uedfe": 3586,
      "\uedff": 3587,
      "\uee00": 3588,
      "\uee01": 3589,
      "\uee02": 3590,
      "\uee03": 3591,
      "\uee04": 3592,
      "\uee05": 3593,
      "\uee06": 3594,
      "\uee07": 3595,
      "\uee08": 3596,
      "\uee09": 3597,
      "\uee0a": 3598,
      "\uee0b": 3599,
      "\uee0c": 3600,
      "\uee0d": 3601,
      "\uee0e": 3602,
      "\uee0f": 3603,
      "\uee10": 3604,
      "\uee11": 3605,
      "\uee12": 3606,
      "\uee13": 3607,
      "\uee14": 3608,
      "\uee15": 3609,
      "\uee16": 3610,
      "\uee17": 3611,
      "\uee18": 3612,
      "\uee19": 3613,
      "\uee1a": 3614,
      "\uee1b": 3615,
      "\uee1c": 3616,
      "\uee1d": 3617,
      "\uee1e": 3618,
      "\uee1f": 3619,
      "\uee20": 3620,
      "\uee21": 3621,
      "\uee22": 3622,
      "\uee23": 3623,
      "\uee24": 3624,
      "\uee25": 3625,
      "\uee26": 3626,
      "\uee27": 3627,
      "\uee28": 3628,
      "\uee29": 3629,
      "\uee2a": 3630,
      "\uee2b": 3631,
      "\uee2c": 3632,
      "\uee2d": 3633,
      "\uee2e": 3634,
      "\uee2f": 3635,
      "\uee30": 3636,
      "\uee31": 3637,
      "\uee32": 3638,
      "\uee33": 3639,
      "\uee34": 3640,
      "\uee35": 3641,
      "\uee36": 3642,
      "\uee37": 3643,
      "\uee38": 3644,
      "\uee39": 3645,
      "\uee3a": 3646,
      "\uee3b": 3647,
      "\uee3c": 3648,
      "\uee3d": 3649,
      "\uee3e": 3650,
      "\uee3f": 3651,
      "\uee40": 3652,
      "\uee41": 3653,
      "\uee42": 3654,
      "\uee43": 3655,
      "\uee44": 3656,
      "\uee45": 3657,
      "\uee46": 3658,
      "\uee47": 3659,
      "\uee48": 3660,
      "\uee49": 3661,
      "\uee4a": 3662,
      "\uee4b": 3663,
      "\uee4c": 3664,
      "\uee4d": 3665,
      "\uee4e": 3666,
      "\uee4f": 3667,
      "\uee50": 3668,
      "\uee51": 3669,
      "\uee52": 3670,
      "\uee53": 3671,
      "\uee54": 3672,
      "\uee55": 3673,
      "\uee56": 3674,
      "\uee57": 3675,
      "\uee58": 3676,
      "\uee59": 3677,
      "\uee5a": 3678,
      "\uee5b": 3679,
      "\uee5c": 3680,
      "\uee5d": 3681,
      "\uee5e": 3682,
      "\uee5f": 3683,
      "\uee60": 3684,
      "\uee61": 3685,
      "\uee62": 3686,
      "\uee63": 3687,
      "\uee64": 3688,
      "\uee65": 3689,
      "\uee66": 3690,
      "\uee67": 3691,
      "\uee68": 3692,
      "\uee69": 3693,
      "\uee6a": 3694,
      "\uee6b": 3695,
      "\uee6c": 3696,
      "\uee6d": 3697,
      "\uee6e": 3698,
      "\uee6f": 3699,
      "\uee70": 3700,
      "\uee71": 3701,
      "\uee72": 3702,
      "\uee73": 3703,
      "\uee74": 3704,
      "\uee75": 3705,
      "\uee76": 3706,
      "\uee77": 3707,
      "\uee78": 3708,
      "\uee79": 3709,
      "\uee7a": 3710,
      "\uee7b": 3711,
      "\uee7c": 3712,
      "\uee7d": 3713,
      "\uee7e": 3714,
      "\uee7f": 3715,
      "\uee80": 3716,
      "\uee81": 3717,
      "\uee82": 3718,
      "\uee83": 3719,
      "\uee84": 3720,
      "\uee85": 3721,
      "\uee86": 3722,
      "\uee87": 3723,
      "\uee88": 3724,
      "\uee89": 3725,
      "\uee8a": 3726,
      "\uee8b": 3727,
      "\uee8c": 3728,
      "\uee8d": 3729,
      "\uee8e": 3730,
      "\uee8f": 3731,
      "\uee90": 3732,
      "\uee91": 3733,
      "\uee92": 3734,
      "\uee93": 3735,
      "\uee94": 3736,
      "\uee95": 3737,
      "\uee96": 3738,
      "\uee97": 3739,
      "\uee98": 3740,
      "\uee99": 3741,
      "\uee9a": 3742,
      "\uee9b": 3743,
      "\uee9c": 3744,
      "\uee9d": 3745,
      "\uee9e": 3746,
      "\uee9f": 3747,
      "\ueea0": 3748,
      "\ueea1": 3749,
      "\ueea2": 3750,
      "\ueea3": 3751,
      "\ueea4": 3752,
      "\ueea5": 3753,
      "\ueea6": 3754,
      "\ueea7": 3755,
      "\ueea8": 3756,
      "\ueea9": 3757,
      "\ueeaa": 3758,
      "\ueeab": 3759,
      "\ueeac": 3760,
      "\ueead": 3761,
      "\ueeae": 3762,
      "\ueeaf": 3763,
      "\ueeb0": 3764,
      "\ueeb1": 3765,
      "\ueeb2": 3766,
      "\ueeb3": 3767,
      "\ueeb4": 3768,
      "\ueeb5": 3769,
      "\ueeb6": 3770,
      "\ueeb7": 3771,
      "\ueeb8": 3772,
      "\ueeb9": 3773,
      "\ueeba": 3774,
      "\ueebb": 3775,
      "\ueebc": 3776,
      "\ueebd": 3777,
      "\ueebe": 3778,
      "\ueebf": 3779,
      "\ueec0": 3780,
      "\ueec1": 3781,
      "\ueec2": 3782,
      "\ueec3": 3783,
      "\ueec4": 3784,
      "\ueec5": 3785,
      "\ueec6": 3786,
      "\ueec7": 3787,
      "\ueec8": 3788,
      "\ueec9": 3789,
      "\ueeca": 3790,
      "\ueecb": 3791,
      "\ueecc": 3792,
      "\ueecd": 3793,
      "\ueece": 3794,
      "\ueecf": 3795,
      "\ueed0": 3796,
      "\ueed1": 3797,
      "\ueed2": 3798,
      "\ueed3": 3799,
      "\ueed4": 3800,
      "\ueed5": 3801,
      "\ueed6": 3802,
      "\ueed7": 3803,
      "\ueed8": 3804,
      "\ueed9": 3805,
      "\ueeda": 3806,
      "\ueedb": 3807,
      "\ueedc": 3808,
      "\ueedd": 3809,
      "\ueede": 3810,
      "\ueedf": 3811,
      "\ueee0": 3812,
      "\ueee1": 3813,
      "\ueee2": 3814,
      "\ueee3": 3815,
      "\ueee4": 3816,
      "\ueee5": 3817,
      "\ueee6": 3818,
      "\ueee7": 3819,
      "\ueee8": 3820,
      "\ueee9": 3821,
      "\ueeea": 3822,
      "\ueeeb": 3823,
      "\ueeec": 3824,
      "\ueeed": 3825,
      "\ueeee": 3826,
      "\ueeef": 3827,
      "\ueef0": 3828,
      "\ueef1": 3829,
      "\ueef2": 3830,
      "\ueef3": 3831,
      "\ueef4": 3832,
      "\ueef5": 3833,
      "\ueef6": 3834,
      "\ueef7": 3835,
      "\ueef8": 3836,
      "\ueef9": 3837,
      "\ueefa": 3838,
      "\ueefb": 3839,
      "\ueefc": 3840,
      "\ueefd": 3841,
      "\ueefe": 3842,
      "\ueeff": 3843,
      "\uef00": 3844,
      "\uef01": 3845,
      "\uef02": 3846,
      "\uef03": 3847,
      "\uef04": 3848,
      "\uef05": 3849,
      "\uef06": 3850,
      "\uef07": 3851,
      "\uef08": 3852,
      "\uef09": 3853,
      "\uef0a": 3854,
      "\uef0b": 3855,
      "\uef0c": 3856,
      "\uef0d": 3857,
      "\uef0e": 3858,
      "\uef0f": 3859,
      "\uef10": 3860,
      "\uef11": 3861,
      "\uef12": 3862,
      "\uef13": 3863,
      "\uef14": 3864,
      "\uef15": 3865,
      "\uef16": 3866,
      "\uef17": 3867,
      "\uef18": 3868,
      "\uef19": 3869,
      "\uef1a": 3870,
      "\uef1b": 3871,
      "\uef1c": 3872,
      "\uef1d": 3873,
      "\uef1e": 3874,
      "\uef1f": 3875,
      "\uef20": 3876,
      "\uef21": 3877,
      "\uef22": 3878,
      "\uef23": 3879,
      "\uef24": 3880,
      "\uef25": 3881,
      "\uef26": 3882,
      "\uef27": 3883,
      "\uef28": 3884,
      "\uef29": 3885,
      "\uef2a": 3886,
      "\uef2b": 3887,
      "\uef2c": 3888,
      "\uef2d": 3889,
      "\uef2e": 3890,
      "\uef2f": 3891,
      "\uef30": 3892,
      "\uef31": 3893,
      "\uef32": 3894,
      "\uef33": 3895,
      "\uef34": 3896,
      "\uef35": 3897,
      "\uef36": 3898,
      "\uef37": 3899,
      "\uef38": 3900,
      "\uef39": 3901,
      "\uef3a": 3902,
      "\uef3b": 3903,
      "\uef3c": 3904,
      "\uef3d": 3905,
      "\uef3e": 3906,
      "\uef3f": 3907,
      "\uef40": 3908,
      "\uef41": 3909,
      "\uef42": 3910,
      "\uef43": 3911,
      "\uef44": 3912,
      "\uef45": 3913,
      "\uef46": 3914,
      "\uef47": 3915,
      "\uef48": 3916,
      "\uef49": 3917,
      "\uef4a": 3918,
      "\uef4b": 3919,
      "\uef4c": 3920,
      "\uef4d": 3921,
      "\uef4e": 3922,
      "\uef4f": 3923,
      "\uef50": 3924,
      "\uef51": 3925,
      "\uef52": 3926,
      "\uef53": 3927,
      "\uef54": 3928,
      "\uef55": 3929,
      "\uef56": 3930,
      "\uef57": 3931,
      "\uef58": 3932,
      "\uef59": 3933,
      "\uef5a": 3934,
      "\uef5b": 3935,
      "\uef5c": 3936,
      "\uef5d": 3937,
      "\uef5e": 3938,
      "\uef5f": 3939,
      "\uef60": 3940,
      "\uef61": 3941,
      "\uef62": 3942,
      "\uef63": 3943,
      "\uef64": 3944,
      "\uef65": 3945,
      "\uef66": 3946,
      "\uef67": 3947,
      "\uef68": 3948,
      "\uef69": 3949,
      "\uef6a": 3950,
      "\uef6b": 3951,
      "\uef6c": 3952,
      "\uef6d": 3953,
      "\uef6e": 3954,
      "\uef6f": 3955,
      "\uef70": 3956,
      "\uef71": 3957,
      "\uef72": 3958,
      "\uef73": 3959,
      "\uef74": 3960,
      "\uef75": 3961,
      "\uef76": 3962,
      "\uef77": 3963,
      "\uef78": 3964,
      "\uef79": 3965,
      "\uef7a": 3966,
      "\uef7b": 3967,
      "\uef7c": 3968,
      "\uef7d": 3969,
      "\uef7e": 3970,
      "\uef7f": 3971,
      "\uef80": 3972,
      "\uef81": 3973,
      "\uef82": 3974,
      "\uef83": 3975,
      "\uef84": 3976,
      "\uef85": 3977,
      "\uef86": 3978,
      "\uef87": 3979,
      "\uef88": 3980,
      "\uef89": 3981,
      "\uef8a": 3982,
      "\uef8b": 3983,
      "\uef8c": 3984,
      "\uef8d": 3985,
      "\uef8e": 3986,
      "\uef8f": 3987,
      "\uef90": 3988,
      "\uef91": 3989,
      "\uef92": 3990,
      "\uef93": 3991,
      "\uef94": 3992,
      "\uef95": 3993,
      "\uef96": 3994,
      "\uef97": 3995,
      "\uef98": 3996,
      "\uef99": 3997,
      "\uef9a": 3998,
      "\uef9b": 3999,
      "\uef9c": 4000,
      "\uef9d": 4001,
      "\uef9e": 4002,
      "\uef9f": 4003,
      "\uefa0": 4004,
      "\uefa1": 4005,
      "\uefa2": 4006,
      "\uefa3": 4007,
      "\uefa4": 4008,
      "\uefa5": 4009,
      "\uefa6": 4010,
      "\uefa7": 4011,
      "\uefa8": 4012,
      "\uefa9": 4013,
      "\uefaa": 4014,
      "\uefab": 4015,
      "\uefac": 4016,
      "\uefad": 4017,
      "\uefae": 4018,
      "\uefaf": 4019,
      "\uefb0": 4020,
      "\uefb1": 4021,
      "\uefb2": 4022,
      "\uefb3": 4023,
      "\uefb4": 4024,
      "\uefb5": 4025,
      "\uefb6": 4026,
      "\uefb7": 4027,
      "\uefb8": 4028,
      "\uefb9": 4029,
      "\uefba": 4030,
      "\uefbb": 4031,
      "\uefbc": 4032,
      "\uefbd": 4033,
      "\uefbe": 4034,
      "\uefbf": 4035,
      "\uefc0": 4036,
      "\uefc1": 4037,
      "\uefc2": 4038,
      "\uefc3": 4039,
      "\uefc4": 4040,
      "\uefc5": 4041,
      "\uefc6": 4042,
      "\uefc7": 4043,
      "\uefc8": 4044,
      "\uefc9": 4045,
      "\uefca": 4046,
      "\uefcb": 4047,
      "\uefcc": 4048,
      "\uefcd": 4049,
      "\uefce": 4050,
      "\uefcf": 4051,
      "\uefd0": 4052,
      "\uefd1": 4053,
      "\uefd2": 4054,
      "\uefd3": 4055,
      "\uefd4": 4056,
      "\uefd5": 4057,
      "\uefd6": 4058,
      "\uefd7": 4059,
      "\uefd8": 4060,
      "\uefd9": 4061,
      "\uefda": 4062,
      "\uefdb": 4063,
      "\uefdc": 4064,
      "\uefdd": 4065,
      "\uefde": 4066,
      "\uefdf": 4067,
      "\uefe0": 4068,
      "\uefe1": 4069,
      "\uefe2": 4070,
      "\uefe3": 4071,
      "\uefe4": 4072,
      "\uefe5": 4073,
      "\uefe6": 4074,
      "\uefe7": 4075,
      "\uefe8": 4076,
      "\uefe9": 4077,
      "\uefea": 4078,
      "\uefeb": 4079,
      "\uefec": 4080,
      "\uefed": 4081,
      "\uefee": 4082,
      "\uefef": 4083,
      "\ueff0": 4084,
      "\ueff1": 4085,
      "\ueff2": 4086,
      "\ueff3": 4087,
      "\ueff4": 4088,
      "\ueff5": 4089,
      "\ueff6": 4090,
      "\ueff7": 4091,
      "\ueff8": 4092,
      "\ueff9": 4093,
      "\ueffa": 4094,
      "\ueffb": 4095,
      "\ueffc": 4096,
      "\ueffd": 4097,
      "\ueffe": 4098,
      "\uefff": 4099,
      "\uf000": 4100,
      "\uf001": 4101,
      "\uf002": 4102,
      "\uf003": 4103,
      "\uf004": 4104,
      "\uf005": 4105,
      "\uf006": 4106,
      "\uf007": 4107,
      "\uf008": 4108,
      "\uf009": 4109,
      "\uf00a": 4110,
      "\uf00b": 4111,
      "\uf00c": 4112,
      "\uf00d": 4113,
      "\uf00e": 4114,
      "\uf00f": 4115,
      "\uf010": 4116,
      "\uf011": 4117,
      "\uf012": 4118,
      "\uf013": 4119,
      "\uf014": 4120,
      "\uf015": 4121,
      "\uf016": 4122,
      "\uf017": 4123,
      "\uf018": 4124,
      "\uf019": 4125,
      "\uf01a": 4126,
      "\uf01b": 4127,
      "\uf01c": 4128,
      "\uf01d": 4129,
      "\uf01e": 4130,
      "\uf01f": 4131,
      "\uf020": 4132,
      "\uf021": 4133,
      "\uf022": 4134,
      "\uf023": 4135,
      "\uf024": 4136,
      "\uf025": 4137,
      "\uf026": 4138,
      "\uf027": 4139,
      "\uf028": 4140,
      "\uf029": 4141,
      "\uf02a": 4142,
      "\uf02b": 4143,
      "\uf02c": 4144,
      "\uf02d": 4145,
      "\uf02e": 4146,
      "\uf02f": 4147,
      "\uf030": 4148,
      "\uf031": 4149,
      "\uf032": 4150,
      "\uf033": 4151,
      "\uf034": 4152,
      "\uf035": 4153,
      "\uf036": 4154,
      "\uf037": 4155,
      "\uf038": 4156,
      "\uf039": 4157,
      "\uf03a": 4158,
      "\uf03b": 4159,
      "\uf03c": 4160,
      "\uf03d": 4161,
      "\uf03e": 4162,
      "\uf03f": 4163,
      "\uf040": 4164,
      "\uf041": 4165,
      "\uf042": 4166,
      "\uf043": 4167,
      "\uf044": 4168,
      "\uf045": 4169,
      "\uf046": 4170,
      "\uf047": 4171,
      "\uf048": 4172,
      "\uf049": 4173,
      "\uf04a": 4174,
      "\uf04b": 4175,
      "\uf04c": 4176,
      "\uf04d": 4177,
      "\uf04e": 4178,
      "\uf04f": 4179,
      "\uf050": 4180,
      "\uf051": 4181,
      "\uf052": 4182,
      "\uf053": 4183,
      "\uf054": 4184,
      "\uf055": 4185,
      "\uf056": 4186,
      "\uf057": 4187,
      "\uf058": 4188,
      "\uf059": 4189,
      "\uf05a": 4190,
      "\uf05b": 4191,
      "\uf05c": 4192,
      "\uf05d": 4193,
      "\uf05e": 4194,
      "\uf05f": 4195,
      "\uf060": 4196,
      "\uf061": 4197,
      "\uf062": 4198,
      "\uf063": 4199,
      "\uf064": 4200,
      "\uf065": 4201,
      "\uf066": 4202,
      "\uf067": 4203,
      "\uf068": 4204,
      "\uf069": 4205,
      "\uf06a": 4206,
      "\uf06b": 4207,
      "\uf06c": 4208,
      "\uf06d": 4209,
      "\uf06e": 4210,
      "\uf06f": 4211,
      "\uf070": 4212,
      "\uf071": 4213,
      "\uf072": 4214,
      "\uf073": 4215,
      "\uf074": 4216,
      "\uf075": 4217,
      "\uf076": 4218,
      "\uf077": 4219,
      "\uf078": 4220,
      "\uf079": 4221,
      "\uf07a": 4222,
      "\uf07b": 4223,
      "\uf07c": 4224,
      "\uf07d": 4225,
      "\uf07e": 4226,
      "\uf07f": 4227,
      "\uf080": 4228,
      "\uf081": 4229,
      "\uf082": 4230,
      "\uf083": 4231,
      "\uf084": 4232,
      "\uf085": 4233,
      "\uf086": 4234,
      "\uf087": 4235,
      "\uf088": 4236,
      "\uf089": 4237,
      "\uf08a": 4238,
      "\uf08b": 4239,
      "\uf08c": 4240,
      "\uf08d": 4241,
      "\uf08e": 4242,
      "\uf08f": 4243,
      "\uf090": 4244,
      "\uf091": 4245,
      "\uf092": 4246,
      "\uf093": 4247,
      "\uf094": 4248,
      "\uf095": 4249,
      "\uf096": 4250,
      "\uf097": 4251,
      "\uf098": 4252,
      "\uf099": 4253,
      "\uf09a": 4254,
      "\uf09b": 4255,
      "\uf09c": 4256,
      "\uf09d": 4257,
      "\uf09e": 4258,
      "\uf09f": 4259,
      "\uf0a0": 4260,
      "\uf0a1": 4261,
      "\uf0a2": 4262,
      "\uf0a3": 4263,
      "\uf0a4": 4264,
      "\uf0a5": 4265,
      "\uf0a6": 4266,
      "\uf0a7": 4267,
      "\uf0a8": 4268,
      "\uf0a9": 4269,
      "\uf0aa": 4270,
      "\uf0ab": 4271,
      "\uf0ac": 4272,
      "\uf0ad": 4273,
      "\uf0ae": 4274,
      "\uf0af": 4275,
      "\uf0b0": 4276,
      "\uf0b1": 4277,
      "\uf0b2": 4278,
      "\uf0b3": 4279,
      "\uf0b4": 4280,
      "\uf0b5": 4281,
      "\uf0b6": 4282,
      "\uf0b7": 4283,
      "\uf0b8": 4284,
      "\uf0b9": 4285,
      "\uf0ba": 4286,
      "\uf0bb": 4287,
      "\uf0bc": 4288,
      "\uf0bd": 4289,
      "\uf0be": 4290,
      "\uf0bf": 4291,
      "\uf0c0": 4292,
      "\uf0c1": 4293,
      "\uf0c2": 4294,
      "\uf0c3": 4295,
      "\uf0c4": 4296,
      "\uf0c5": 4297,
      "\uf0c6": 4298,
      "\uf0c7": 4299,
      "\uf0c8": 4300,
      "\uf0c9": 4301,
      "\uf0ca": 4302,
      "\uf0cb": 4303,
      "\uf0cc": 4304,
      "\uf0cd": 4305,
      "\uf0ce": 4306,
      "\uf0cf": 4307,
      "\uf0d0": 4308,
      "\uf0d1": 4309,
      "\uf0d2": 4310,
      "\uf0d3": 4311,
      "\uf0d4": 4312,
      "\uf0d5": 4313,
      "\uf0d6": 4314,
      "\uf0d7": 4315,
      "\uf0d8": 4316,
      "\uf0d9": 4317,
      "\uf0da": 4318,
      "\uf0db": 4319,
      "\uf0dc": 4320,
      "\uf0dd": 4321,
      "\uf0de": 4322,
      "\uf0df": 4323,
      "\uf0e0": 4324,
      "\uf0e1": 4325,
      "\uf0e2": 4326,
      "\uf0e3": 4327,
      "\uf0e4": 4328,
      "\uf0e5": 4329,
      "\uf0e6": 4330,
      "\uf0e7": 4331,
      "\uf0e8": 4332,
      "\uf0e9": 4333,
      "\uf0ea": 4334,
      "\uf0eb": 4335,
      "\uf0ec": 4336,
      "\uf0ed": 4337,
      "\uf0ee": 4338,
      "\uf0ef": 4339,
      "\uf0f0": 4340,
      "\uf0f1": 4341,
      "\uf0f2": 4342,
      "\uf0f3": 4343,
      "\uf0f4": 4344,
      "\uf0f5": 4345,
      "\uf0f6": 4346,
      "\uf0f7": 4347,
      "\uf0f8": 4348,
      "\uf0f9": 4349,
      "\uf0fa": 4350,
      "\uf0fb": 4351,
      "\uf0fc": 4352,
      "\uf0fd": 4353,
      "\uf0fe": 4354,
      "\uf0ff": 4355,
      "\uf100": 4356,
      "\uf101": 4357,
      "\uf102": 4358,
      "\uf103": 4359,
      "\uf104": 4360,
      "\uf105": 4361,
      "\uf106": 4362,
      "\uf107": 4363,
      "\uf108": 4364,
      "\uf109": 4365,
      "\uf10a": 4366,
      "\uf10b": 4367,
      "\uf10c": 4368,
      "\uf10d": 4369,
      "\uf10e": 4370,
      "\uf10f": 4371,
      "\uf110": 4372,
      "\uf111": 4373,
      "\uf112": 4374,
      "\uf113": 4375,
      "\uf114": 4376,
      "\uf115": 4377,
      "\uf116": 4378,
      "\uf117": 4379,
      "\uf118": 4380,
      "\uf119": 4381,
      "\uf11a": 4382,
      "\uf11b": 4383,
      "\uf11c": 4384,
      "\uf11d": 4385,
      "\uf11e": 4386,
      "\uf11f": 4387,
      "\uf120": 4388,
      "\uf121": 4389,
      "\uf122": 4390,
      "\uf123": 4391,
      "\uf124": 4392,
      "\uf125": 4393,
      "\uf126": 4394,
      "\uf127": 4395,
      "\uf128": 4396,
      "\uf129": 4397,
      "\uf12a": 4398,
      "\uf12b": 4399,
      "\uf12c": 4400,
      "\uf12d": 4401,
      "\uf12e": 4402,
      "\uf12f": 4403,
      "\uf130": 4404,
      "\uf131": 4405,
      "\uf132": 4406,
      "\uf133": 4407,
      "\uf134": 4408,
      "\uf135": 4409,
      "\uf136": 4410,
      "\uf137": 4411,
      "\uf138": 4412,
      "\uf139": 4413,
      "\uf13a": 4414,
      "\uf13b": 4415,
      "\uf13c": 4416,
      "\uf13d": 4417,
      "\uf13e": 4418,
      "\uf13f": 4419,
      "\uf140": 4420,
      "\uf141": 4421,
      "\uf142": 4422,
      "\uf143": 4423,
      "\uf144": 4424,
      "\uf145": 4425,
      "\uf146": 4426,
      "\uf147": 4427,
      "\uf148": 4428,
      "\uf149": 4429,
      "\uf14a": 4430,
      "\uf14b": 4431,
      "\uf14c": 4432,
      "\uf14d": 4433,
      "\uf14e": 4434,
      "\uf14f": 4435,
      "\uf150": 4436,
      "\uf151": 4437,
      "\uf152": 4438,
      "\uf153": 4439,
      "\uf154": 4440,
      "\uf155": 4441,
      "\uf156": 4442,
      "\uf157": 4443,
      "\uf158": 4444,
      "\uf159": 4445,
      "\uf15a": 4446,
      "\uf15b": 4447,
      "\uf15c": 4448,
      "\uf15d": 4449,
      "\uf15e": 4450,
      "\uf15f": 4451,
      "\uf160": 4452,
      "\uf161": 4453,
      "\uf162": 4454,
      "\uf163": 4455,
      "\uf164": 4456,
      "\uf165": 4457,
      "\uf166": 4458,
      "\uf167": 4459,
      "\uf168": 4460,
      "\uf169": 4461,
      "\uf16a": 4462,
      "\uf16b": 4463,
      "\uf16c": 4464,
      "\uf16d": 4465,
      "\uf16e": 4466,
      "\uf16f": 4467,
      "\uf170": 4468,
      "\uf171": 4469,
      "\uf172": 4470,
      "\uf173": 4471,
      "\uf174": 4472,
      "\uf175": 4473,
      "\uf176": 4474,
      "\uf177": 4475,
      "\uf178": 4476,
      "\uf179": 4477,
      "\uf17a": 4478,
      "\uf17b": 4479,
      "\uf17c": 4480,
      "\uf17d": 4481,
      "\uf17e": 4482,
      "\uf17f": 4483,
      "\uf180": 4484,
      "\uf181": 4485,
      "\uf182": 4486,
      "\uf183": 4487,
      "\uf184": 4488,
      "\uf185": 4489,
      "\uf186": 4490,
      "\uf187": 4491,
      "\uf188": 4492,
      "\uf189": 4493,
      "\uf18a": 4494,
      "\uf18b": 4495,
      "\uf18c": 4496,
      "\uf18d": 4497,
      "\uf18e": 4498,
      "\uf18f": 4499,
      "\uf190": 4500,
      "\uf191": 4501,
      "\uf192": 4502,
      "\uf193": 4503,
      "\uf194": 4504,
      "\uf195": 4505,
      "\uf196": 4506,
      "\uf197": 4507,
      "\uf198": 4508,
      "\uf199": 4509,
      "\uf19a": 4510,
      "\uf19b": 4511,
      "\uf19c": 4512,
      "\uf19d": 4513,
      "\uf19e": 4514,
      "\uf19f": 4515,
      "\uf1a0": 4516,
      "\uf1a1": 4517,
      "\uf1a2": 4518,
      "\uf1a3": 4519,
      "\uf1a4": 4520,
      "\uf1a5": 4521,
      "\uf1a6": 4522,
      "\uf1a7": 4523,
      "\uf1a8": 4524,
      "\uf1a9": 4525,
      "\uf1aa": 4526,
      "\uf1ab": 4527,
      "\uf1ac": 4528,
      "\uf1ad": 4529,
      "\uf1ae": 4530,
      "\uf1af": 4531,
      "\uf1b0": 4532,
      "\uf1b1": 4533,
      "\uf1b2": 4534,
      "\uf1b3": 4535,
      "\uf1b4": 4536,
      "\uf1b5": 4537,
      "\uf1b6": 4538,
      "\uf1b7": 4539,
      "\uf1b8": 4540,
      "\uf1b9": 4541,
      "\uf1ba": 4542,
      "\uf1bb": 4543,
      "\uf1bc": 4544,
      "\uf1bd": 4545,
      "\uf1be": 4546,
      "\uf1bf": 4547,
      "\uf1c0": 4548,
      "\uf1c1": 4549,
      "\uf1c2": 4550,
      "\uf1c3": 4551,
      "\uf1c4": 4552,
      "\uf1c5": 4553,
      "\uf1c6": 4554,
      "\uf1c7": 4555,
      "\uf1c8": 4556,
      "\uf1c9": 4557,
      "\uf1ca": 4558,
      "\uf1cb": 4559,
      "\uf1cc": 4560,
      "\uf1cd": 4561,
      "\uf1ce": 4562,
      "\uf1cf": 4563,
      "\uf1d0": 4564,
      "\uf1d1": 4565,
      "\uf1d2": 4566,
      "\uf1d3": 4567,
      "\uf1d4": 4568,
      "\uf1d5": 4569,
      "\uf1d6": 4570,
      "\uf1d7": 4571,
      "\uf1d8": 4572,
      "\uf1d9": 4573,
      "\uf1da": 4574,
      "\uf1db": 4575,
      "\uf1dc": 4576,
      "\uf1dd": 4577,
      "\uf1de": 4578,
      "\uf1df": 4579,
      "\uf1e0": 4580,
      "\uf1e1": 4581,
      "\uf1e2": 4582,
      "\uf1e3": 4583,
      "\uf1e4": 4584,
      "\uf1e5": 4585,
      "\uf1e6": 4586,
      "\uf1e7": 4587,
      "\uf1e8": 4588,
      "\uf1e9": 4589,
      "\uf1ea": 4590,
      "\uf1eb": 4591,
      "\uf1ec": 4592,
      "\uf1ed": 4593,
      "\uf1ee": 4594,
      "\uf1ef": 4595,
      "\uf1f0": 4596,
      "\uf1f1": 4597,
      "\uf1f2": 4598,
      "\uf1f3": 4599,
      "\uf1f4": 4600,
      "\uf1f5": 4601,
      "\uf1f6": 4602,
      "\uf1f7": 4603,
      "\uf1f8": 4604,
      "\uf1f9": 4605,
      "\uf1fa": 4606,
      "\uf1fb": 4607,
      "\uf1fc": 4608,
      "\uf1fd": 4609,
      "\uf1fe": 4610,
      "\uf1ff": 4611,
      "\uf200": 4612,
      "\uf201": 4613,
      "\uf202": 4614,
      "\uf203": 4615,
      "\uf204": 4616,
      "\uf205": 4617,
      "\uf206": 4618,
      "\uf207": 4619,
      "\uf208": 4620,
      "\uf209": 4621,
      "\uf20a": 4622,
      "\uf20b": 4623,
      "\uf20c": 4624,
      "\uf20d": 4625,
      "\uf20e": 4626,
      "\uf20f": 4627,
      "\uf210": 4628,
      "\uf211": 4629,
      "\uf212": 4630,
      "\uf213": 4631,
      "\uf214": 4632,
      "\uf215": 4633,
      "\uf216": 4634,
      "\uf217": 4635,
      "\uf218": 4636,
      "\uf219": 4637,
      "\uf21a": 4638,
      "\uf21b": 4639,
      "\uf21c": 4640,
      "\uf21d": 4641,
      "\uf21e": 4642,
      "\uf21f": 4643,
      "\uf220": 4644,
      "\uf221": 4645,
      "\uf222": 4646,
      "\uf223": 4647,
      "\uf224": 4648,
      "\uf225": 4649,
      "\uf226": 4650,
      "\uf227": 4651,
      "\uf228": 4652,
      "\uf229": 4653,
      "\uf22a": 4654,
      "\uf22b": 4655,
      "\uf22c": 4656,
      "\uf22d": 4657,
      "\uf22e": 4658,
      "\uf22f": 4659,
      "\uf230": 4660,
      "\uf231": 4661,
      "\uf232": 4662,
      "\uf233": 4663,
      "\uf234": 4664,
      "\uf235": 4665,
      "\uf236": 4666,
      "\uf237": 4667,
      "\uf238": 4668,
      "\uf239": 4669,
      "\uf23a": 4670,
      "\uf23b": 4671,
      "\uf23c": 4672,
      "\uf23d": 4673,
      "\uf23e": 4674,
      "\uf23f": 4675,
      "\uf240": 4676,
      "\uf241": 4677,
      "\uf242": 4678,
      "\uf243": 4679,
      "\uf244": 4680,
      "\uf245": 4681,
      "\uf246": 4682,
      "\uf247": 4683,
      "\uf248": 4684,
      "\uf249": 4685,
      "\uf24a": 4686,
      "\uf24b": 4687,
      "\uf24c": 4688,
      "\uf24d": 4689,
      "\uf24e": 4690,
      "\uf24f": 4691,
      "\uf250": 4692,
      "\uf251": 4693,
      "\uf252": 4694,
      "\uf253": 4695,
      "\uf254": 4696,
      "\uf255": 4697,
      "\uf256": 4698,
      "\uf257": 4699,
      "\uf258": 4700,
      "\uf259": 4701,
      "\uf25a": 4702,
      "\uf25b": 4703,
      "\uf25c": 4704,
      "\uf25d": 4705,
      "\uf25e": 4706,
      "\uf25f": 4707,
      "\uf260": 4708,
      "\uf261": 4709,
      "\uf262": 4710,
      "\uf263": 4711,
      "\uf264": 4712,
      "\uf265": 4713,
      "\uf266": 4714,
      "\uf267": 4715,
      "\uf268": 4716,
      "\uf269": 4717,
      "\uf26a": 4718,
      "\uf26b": 4719,
      "\uf26c": 4720,
      "\uf26d": 4721,
      "\uf26e": 4722,
      "\uf26f": 4723,
      "\uf270": 4724,
      "\uf271": 4725,
      "\uf272": 4726,
      "\uf273": 4727,
      "\uf274": 4728,
      "\uf275": 4729,
      "\uf276": 4730,
      "\uf277": 4731,
      "\uf278": 4732,
      "\uf279": 4733,
      "\uf27a": 4734,
      "\uf27b": 4735,
      "\uf27c": 4736,
      "\uf27d": 4737,
      "\uf27e": 4738,
      "\uf27f": 4739,
      "\uf280": 4740,
      "\uf281": 4741,
      "\uf282": 4742,
      "\uf283": 4743,
      "\uf284": 4744,
      "\uf285": 4745,
      "\uf286": 4746,
      "\uf287": 4747,
      "\uf288": 4748,
      "\uf289": 4749,
      "\uf28a": 4750,
      "\uf28b": 4751,
      "\uf28c": 4752,
      "\uf28d": 4753,
      "\uf28e": 4754,
      "\uf28f": 4755,
      "\uf290": 4756,
      "\uf291": 4757,
      "\uf292": 4758,
      "\uf293": 4759,
      "\uf294": 4760,
      "\uf295": 4761,
      "\uf296": 4762,
      "\uf297": 4763,
      "\uf298": 4764,
      "\uf299": 4765,
      "\uf29a": 4766,
      "\uf29b": 4767,
      "\uf29c": 4768,
      "\uf29d": 4769,
      "\uf29e": 4770,
      "\uf29f": 4771,
      "\uf2a0": 4772,
      "\uf2a1": 4773,
      "\uf2a2": 4774,
      "\uf2a3": 4775,
      "\uf2a4": 4776,
      "\uf2a5": 4777,
      "\uf2a6": 4778,
      "\uf2a7": 4779,
      "\uf2a8": 4780,
      "\uf2a9": 4781,
      "\uf2aa": 4782,
      "\uf2ab": 4783,
      "\uf2ac": 4784,
      "\uf2ad": 4785,
      "\uf2ae": 4786,
      "\uf2af": 4787,
      "\uf2b0": 4788,
      "\uf2b1": 4789,
      "\uf2b2": 4790,
      "\uf2b3": 4791,
      "\uf2b4": 4792,
      "\uf2b5": 4793,
      "\uf2b6": 4794,
      "\uf2b7": 4795,
      "\uf2b8": 4796,
      "\uf2b9": 4797,
      "\uf2ba": 4798,
      "\uf2bb": 4799,
      "\uf2bc": 4800,
      "\uf2bd": 4801,
      "\uf2be": 4802,
      "\uf2bf": 4803,
      "\uf2c0": 4804,
      "\uf2c1": 4805,
      "\uf2c2": 4806,
      "\uf2c3": 4807,
      "\uf2c4": 4808,
      "\uf2c5": 4809,
      "\uf2c6": 4810,
      "\uf2c7": 4811,
      "\uf2c8": 4812,
      "\uf2c9": 4813,
      "\uf2ca": 4814,
      "\uf2cb": 4815,
      "\uf2cc": 4816,
      "\uf2cd": 4817,
      "\uf2ce": 4818,
      "\uf2cf": 4819,
      "\uf2d0": 4820,
      "\uf2d1": 4821,
      "\uf2d2": 4822,
      "\uf2d3": 4823,
      "\uf2d4": 4824,
      "\uf2d5": 4825,
      "\uf2d6": 4826,
      "\uf2d7": 4827,
      "\uf2d8": 4828,
      "\uf2d9": 4829,
      "\uf2da": 4830,
      "\uf2db": 4831,
      "\uf2dc": 4832,
      "\uf2dd": 4833,
      "\uf2de": 4834,
      "\uf2df": 4835,
      "\uf2e0": 4836,
      "\uf2e1": 4837,
      "\uf2e2": 4838,
      "\uf2e3": 4839,
      "\uf2e4": 4840,
      "\uf2e5": 4841,
      "\uf2e6": 4842,
      "\uf2e7": 4843,
      "\uf2e8": 4844,
      "\uf2e9": 4845,
      "\uf2ea": 4846,
      "\uf2eb": 4847,
      "\uf2ec": 4848,
      "\uf2ed": 4849,
      "\uf2ee": 4850,
      "\uf2ef": 4851,
      "\uf2f0": 4852,
      "\uf2f1": 4853,
      "\uf2f2": 4854,
      "\uf2f3": 4855,
      "\uf2f4": 4856,
      "\uf2f5": 4857,
      "\uf2f6": 4858,
      "\uf2f7": 4859,
      "\uf2f8": 4860,
      "\uf2f9": 4861,
      "\uf2fa": 4862,
      "\uf2fb": 4863,
      "\uf2fc": 4864,
      "\uf2fd": 4865,
      "\uf2fe": 4866,
      "\uf2ff": 4867,
      "\uf300": 4868,
      "\uf301": 4869,
      "\uf302": 4870,
      "\uf303": 4871,
      "\uf304": 4872,
      "\uf305": 4873,
      "\uf306": 4874,
      "\uf307": 4875,
      "\uf308": 4876,
      "\uf309": 4877,
      "\uf30a": 4878,
      "\uf30b": 4879,
      "\uf30c": 4880,
      "\uf30d": 4881,
      "\uf30e": 4882,
      "\uf30f": 4883,
      "\uf310": 4884,
      "\uf311": 4885,
      "\uf312": 4886,
      "\uf313": 4887,
      "\uf314": 4888,
      "\uf315": 4889,
      "\uf316": 4890,
      "\uf317": 4891,
      "\uf318": 4892,
      "\uf319": 4893,
      "\uf31a": 4894,
      "\uf31b": 4895,
      "\uf31c": 4896,
      "\uf31d": 4897,
      "\uf31e": 4898,
      "\uf31f": 4899,
      "\uf320": 4900,
      "\uf321": 4901,
      "\uf322": 4902,
      "\uf323": 4903,
      "\uf324": 4904,
      "\uf325": 4905,
      "\uf326": 4906,
      "\uf327": 4907,
      "\uf328": 4908,
      "\uf329": 4909,
      "\uf32a": 4910,
      "\uf32b": 4911,
      "\uf32c": 4912,
      "\uf32d": 4913,
      "\uf32e": 4914,
      "\uf32f": 4915,
      "\uf330": 4916,
      "\uf331": 4917,
      "\uf332": 4918,
      "\uf333": 4919,
      "\uf334": 4920,
      "\uf335": 4921,
      "\uf336": 4922,
      "\uf337": 4923,
      "\uf338": 4924,
      "\uf339": 4925,
      "\uf33a": 4926,
      "\uf33b": 4927,
      "\uf33c": 4928,
      "\uf33d": 4929,
      "\uf33e": 4930,
      "\uf33f": 4931,
      "\uf340": 4932,
      "\uf341": 4933,
      "\uf342": 4934,
      "\uf343": 4935,
      "\uf344": 4936,
      "\uf345": 4937,
      "\uf346": 4938,
      "\uf347": 4939,
      "\uf348": 4940,
      "\uf349": 4941,
      "\uf34a": 4942,
      "\uf34b": 4943,
      "\uf34c": 4944,
      "\uf34d": 4945,
      "\uf34e": 4946,
      "\uf34f": 4947,
      "\uf350": 4948,
      "\uf351": 4949,
      "\uf352": 4950,
      "\uf353": 4951,
      "\uf354": 4952,
      "\uf355": 4953,
      "\uf356": 4954,
      "\uf357": 4955,
      "\uf358": 4956,
      "\uf359": 4957,
      "\uf35a": 4958,
      "\uf35b": 4959,
      "\uf35c": 4960,
      "\uf35d": 4961,
      "\uf35e": 4962,
      "\uf35f": 4963,
      "\uf360": 4964,
      "\uf361": 4965,
      "\uf362": 4966,
      "\uf363": 4967,
      "\uf364": 4968,
      "\uf365": 4969,
      "\uf366": 4970,
      "\uf367": 4971,
      "\uf368": 4972,
      "\uf369": 4973,
      "\uf36a": 4974,
      "\uf36b": 4975,
      "\uf36c": 4976,
      "\uf36d": 4977,
      "\uf36e": 4978,
      "\uf36f": 4979,
      "\uf370": 4980,
      "\uf371": 4981,
      "\uf372": 4982,
      "\uf373": 4983,
      "\uf374": 4984,
      "\uf375": 4985,
      "\uf376": 4986,
      "\uf377": 4987,
      "\uf378": 4988,
      "\uf379": 4989,
      "\uf37a": 4990,
      "\uf37b": 4991,
      "\uf37c": 4992,
      "\uf37d": 4993,
      "\uf37e": 4994,
      "\uf37f": 4995,
      "\uf380": 4996,
      "\uf381": 4997,
      "\uf382": 4998,
      "\uf383": 4999,
      "\uf384": 5000,
      "\uf385": 5001,
      "\uf386": 5002,
      "\uf387": 5003,
      "\uf388": 5004,
      "\uf389": 5005,
      "\uf38a": 5006,
      "\uf38b": 5007,
      "\uf38c": 5008,
      "\uf38d": 5009,
      "\uf38e": 5010,
      "\uf38f": 5011,
      "\uf390": 5012,
      "\uf391": 5013,
      "\uf392": 5014,
      "\uf393": 5015,
      "\uf394": 5016,
      "\uf395": 5017,
      "\uf396": 5018,
      "\uf397": 5019,
      "\uf398": 5020,
      "\uf399": 5021,
      "\uf39a": 5022,
      "\uf39b": 5023,
      "\uf39c": 5024,
      "\uf39d": 5025,
      "\uf39e": 5026,
      "\uf39f": 5027,
      "\uf3a0": 5028,
      "\uf3a1": 5029,
      "\uf3a2": 5030,
      "\uf3a3": 5031,
      "\uf3a4": 5032,
      "\uf3a5": 5033,
      "\uf3a6": 5034,
      "\uf3a7": 5035,
      "\uf3a8": 5036,
      "\uf3a9": 5037,
      "\uf3aa": 5038,
      "\uf3ab": 5039,
      "\uf3ac": 5040,
      "\uf3ad": 5041,
      "\uf3ae": 5042,
      "\uf3af": 5043,
      "\uf3b0": 5044,
      "\uf3b1": 5045,
      "\uf3b2": 5046,
      "\uf3b3": 5047,
      "\uf3b4": 5048,
      "\uf3b5": 5049,
      "\uf3b6": 5050,
      "\uf3b7": 5051,
      "\uf3b8": 5052,
      "\uf3b9": 5053,
      "\uf3ba": 5054,
      "\uf3bb": 5055,
      "\uf3bc": 5056,
      "\uf3bd": 5057,
      "\uf3be": 5058,
      "\uf3bf": 5059,
      "\uf3c0": 5060,
      "\uf3c1": 5061,
      "\uf3c2": 5062,
      "\uf3c3": 5063,
      "\uf3c4": 5064,
      "\uf3c5": 5065,
      "\uf3c6": 5066,
      "\uf3c7": 5067,
      "\uf3c8": 5068,
      "\uf3c9": 5069,
      "\uf3ca": 5070,
      "\uf3cb": 5071,
      "\uf3cc": 5072,
      "\uf3cd": 5073,
      "\uf3ce": 5074,
      "\uf3cf": 5075,
      "\uf3d0": 5076,
      "\uf3d1": 5077,
      "\uf3d2": 5078,
      "\uf3d3": 5079,
      "\uf3d4": 5080,
      "\uf3d5": 5081,
      "\uf3d6": 5082,
      "\uf3d7": 5083,
      "\uf3d8": 5084,
      "\uf3d9": 5085,
      "\uf3da": 5086,
      "\uf3db": 5087,
      "\uf3dc": 5088,
      "\uf3dd": 5089,
      "\uf3de": 5090,
      "\uf3df": 5091,
      "\uf3e0": 5092,
      "\uf3e1": 5093,
      "\uf3e2": 5094,
      "\uf3e3": 5095,
      "\uf3e4": 5096,
      "\uf3e5": 5097,
      "\uf3e6": 5098,
      "\uf3e7": 5099,
      "\uf3e8": 5100,
      "\uf3e9": 5101,
      "\uf3ea": 5102,
      "\uf3eb": 5103,
      "\uf3ec": 5104,
      "\uf3ed": 5105,
      "\uf3ee": 5106,
      "\uf3ef": 5107,
      "\uf3f0": 5108,
      "\uf3f1": 5109,
      "\uf3f2": 5110,
      "\uf3f3": 5111,
      "\uf3f4": 5112,
      "\uf3f5": 5113,
      "\uf3f6": 5114,
      "\uf3f7": 5115,
      "\uf3f8": 5116,
      "\uf3f9": 5117,
      "\uf3fa": 5118,
      "\uf3fb": 5119,
      "\uf3fc": 5120,
      "\uf3fd": 5121,
      "\uf3fe": 5122,
      "\uf3ff": 5123,
      "\uf400": 5124,
      "\uf401": 5125,
      "\uf402": 5126,
      "\uf403": 5127,
      "\uf404": 5128,
      "\uf405": 5129,
      "\uf406": 5130,
      "\uf407": 5131,
      "\uf408": 5132,
      "\uf409": 5133,
      "\uf40a": 5134,
      "\uf40b": 5135,
      "\uf40c": 5136,
      "\uf40d": 5137,
      "\uf40e": 5138,
      "\uf40f": 5139,
      "\uf410": 5140,
      "\uf411": 5141,
      "\uf412": 5142,
      "\uf413": 5143,
      "\uf414": 5144,
      "\uf415": 5145,
      "\uf416": 5146,
      "\uf417": 5147,
      "\uf418": 5148,
      "\uf419": 5149,
      "\uf41a": 5150,
      "\uf41b": 5151,
      "\uf41c": 5152,
      "\uf41d": 5153,
      "\uf41e": 5154,
      "\uf41f": 5155,
      "\uf420": 5156,
      "\uf421": 5157,
      "\uf422": 5158,
      "\uf423": 5159,
      "\uf424": 5160,
      "\uf425": 5161,
      "\uf426": 5162,
      "\uf427": 5163,
      "\uf428": 5164,
      "\uf429": 5165,
      "\uf42a": 5166,
      "\uf42b": 5167,
      "\uf42c": 5168,
      "\uf42d": 5169,
      "\uf42e": 5170,
      "\uf42f": 5171,
      "\uf430": 5172,
      "\uf431": 5173,
      "\uf432": 5174,
      "\uf433": 5175,
      "\uf434": 5176,
      "\uf435": 5177,
      "\uf436": 5178,
      "\uf437": 5179,
      "\uf438": 5180,
      "\uf439": 5181,
      "\uf43a": 5182,
      "\uf43b": 5183,
      "\uf43c": 5184,
      "\uf43d": 5185,
      "\uf43e": 5186,
      "\uf43f": 5187,
      "\uf440": 5188,
      "\uf441": 5189,
      "\uf442": 5190,
      "\uf443": 5191,
      "\uf444": 5192,
      "\uf445": 5193,
      "\uf446": 5194,
      "\uf447": 5195,
      "\uf448": 5196,
      "\uf449": 5197,
      "\uf44a": 5198,
      "\uf44b": 5199,
      "\uf44c": 5200,
      "\uf44d": 5201,
      "\uf44e": 5202,
      "\uf44f": 5203,
      "\uf450": 5204,
      "\uf451": 5205,
      "\uf452": 5206,
      "\uf453": 5207,
      "\uf454": 5208,
      "\uf455": 5209,
      "\uf456": 5210,
      "\uf457": 5211,
      "\uf458": 5212,
      "\uf459": 5213,
      "\uf45a": 5214,
      "\uf45b": 5215,
      "\uf45c": 5216,
      "\uf45d": 5217,
      "\uf45e": 5218,
      "\uf45f": 5219,
      "\uf460": 5220,
      "\uf461": 5221,
      "\uf462": 5222,
      "\uf463": 5223,
      "\uf464": 5224,
      "\uf465": 5225,
      "\uf466": 5226,
      "\uf467": 5227,
      "\uf468": 5228,
      "\uf469": 5229,
      "\uf46a": 5230,
      "\uf46b": 5231,
      "\uf46c": 5232,
      "\uf46d": 5233,
      "\uf46e": 5234,
      "\uf46f": 5235,
      "\uf470": 5236,
      "\uf471": 5237,
      "\uf472": 5238,
      "\uf473": 5239,
      "\uf474": 5240,
      "\uf475": 5241,
      "\uf476": 5242,
      "\uf477": 5243,
      "\uf478": 5244,
      "\uf479": 5245,
      "\uf47a": 5246,
      "\uf47b": 5247,
      "\uf47c": 5248,
      "\uf47d": 5249,
      "\uf47e": 5250,
      "\uf47f": 5251,
      "\uf480": 5252,
      "\uf481": 5253,
      "\uf482": 5254,
      "\uf483": 5255,
      "\uf484": 5256,
      "\uf485": 5257,
      "\uf486": 5258,
      "\uf487": 5259,
      "\uf488": 5260,
      "\uf489": 5261,
      "\uf48a": 5262,
      "\uf48b": 5263,
      "\uf48c": 5264,
      "\uf48d": 5265,
      "\uf48e": 5266,
      "\uf48f": 5267,
      "\uf490": 5268,
      "\uf491": 5269,
      "\uf492": 5270,
      "\uf493": 5271,
      "\uf494": 5272,
      "\uf495": 5273,
      "\uf496": 5274,
      "\uf497": 5275,
      "\uf498": 5276,
      "\uf499": 5277,
      "\uf49a": 5278,
      "\uf49b": 5279,
      "\uf49c": 5280,
      "\uf49d": 5281,
      "\uf49e": 5282,
      "\uf49f": 5283,
      "\uf4a0": 5284,
      "\uf4a1": 5285,
      "\uf4a2": 5286,
      "\uf4a3": 5287,
      "\uf4a4": 5288,
      "\uf4a5": 5289,
      "\uf4a6": 5290,
      "\uf4a7": 5291,
      "\uf4a8": 5292,
      "\uf4a9": 5293,
      "\uf4aa": 5294,
      "\uf4ab": 5295,
      "\uf4ac": 5296,
      "\uf4ad": 5297,
      "\uf4ae": 5298,
      "\uf4af": 5299,
      "\uf4b0": 5300,
      "\uf4b1": 5301,
      "\uf4b2": 5302,
      "\uf4b3": 5303,
      "\uf4b4": 5304,
      "\uf4b5": 5305,
      "\uf4b6": 5306,
      "\uf4b7": 5307,
      "\uf4b8": 5308,
      "\uf4b9": 5309,
      "\uf4ba": 5310,
      "\uf4bb": 5311,
      "\uf4bc": 5312,
      "\uf4bd": 5313,
      "\uf4be": 5314,
      "\uf4bf": 5315,
      "\uf4c0": 5316,
      "\uf4c1": 5317,
      "\uf4c2": 5318,
      "\uf4c3": 5319,
      "\uf4c4": 5320,
      "\uf4c5": 5321,
      "\uf4c6": 5322,
      "\uf4c7": 5323,
      "\uf4c8": 5324,
      "\uf4c9": 5325,
      "\uf4ca": 5326,
      "\uf4cb": 5327,
      "\uf4cc": 5328,
      "\uf4cd": 5329,
      "\uf4ce": 5330,
      "\uf4cf": 5331,
      "\uf4d0": 5332,
      "\uf4d1": 5333,
      "\uf4d2": 5334,
      "\uf4d3": 5335,
      "\uf4d4": 5336,
      "\uf4d5": 5337,
      "\uf4d6": 5338,
      "\uf4d7": 5339,
      "\uf4d8": 5340,
      "\uf4d9": 5341,
      "\uf4da": 5342,
      "\uf4db": 5343,
      "\uf4dc": 5344,
      "\uf4dd": 5345,
      "\uf4de": 5346,
      "\uf4df": 5347,
      "\uf4e0": 5348,
      "\uf4e1": 5349,
      "\uf4e2": 5350,
      "\uf4e3": 5351,
      "\uf4e4": 5352,
      "\uf4e5": 5353,
      "\uf4e6": 5354,
      "\uf4e7": 5355,
      "\uf4e8": 5356,
      "\uf4e9": 5357,
      "\uf4ea": 5358,
      "\uf4eb": 5359,
      "\uf4ec": 5360,
      "\uf4ed": 5361,
      "\uf4ee": 5362,
      "\uf4ef": 5363,
      "\uf4f0": 5364,
      "\uf4f1": 5365,
      "\uf4f2": 5366,
      "\uf4f3": 5367,
      "\uf4f4": 5368,
      "\uf4f5": 5369,
      "\uf4f6": 5370,
      "\uf4f7": 5371,
      "\uf4f8": 5372,
      "\uf4f9": 5373,
      "\uf4fa": 5374,
      "\uf4fb": 5375,
      "\uf4fc": 5376,
      "\uf4fd": 5377,
      "\uf4fe": 5378,
      "\uf4ff": 5379,
      "\uf500": 5380,
      "\uf501": 5381,
      "\uf502": 5382,
      "\uf503": 5383,
      "\uf504": 5384,
      "\uf505": 5385,
      "\uf506": 5386,
      "\uf507": 5387,
      "\uf508": 5388,
      "\uf509": 5389,
      "\uf50a": 5390,
      "\uf50b": 5391,
      "\uf50c": 5392,
      "\uf50d": 5393,
      "\uf50e": 5394,
      "\uf50f": 5395,
      "\uf510": 5396,
      "\uf511": 5397,
      "\uf512": 5398,
      "\uf513": 5399,
      "\uf514": 5400,
      "\uf515": 5401,
      "\uf516": 5402,
      "\uf517": 5403,
      "\uf518": 5404,
      "\uf519": 5405,
      "\uf51a": 5406,
      "\uf51b": 5407,
      "\uf51c": 5408,
      "\uf51d": 5409,
      "\uf51e": 5410,
      "\uf51f": 5411,
      "\uf520": 5412,
      "\uf521": 5413,
      "\uf522": 5414,
      "\uf523": 5415,
      "\uf524": 5416,
      "\uf525": 5417,
      "\uf526": 5418,
      "\uf527": 5419,
      "\uf528": 5420,
      "\uf529": 5421,
      "\uf52a": 5422,
      "\uf52b": 5423,
      "\uf52c": 5424,
      "\uf52d": 5425,
      "\uf52e": 5426,
      "\uf52f": 5427,
      "\uf530": 5428,
      "\uf531": 5429,
      "\uf532": 5430,
      "\uf533": 5431,
      "\uf534": 5432,
      "\uf535": 5433,
      "\uf536": 5434,
      "\uf537": 5435,
      "\uf538": 5436,
      "\uf539": 5437,
      "\uf53a": 5438,
      "\uf53b": 5439,
      "\uf53c": 5440,
      "\uf53d": 5441,
      "\uf53e": 5442,
      "\uf53f": 5443,
      "\uf540": 5444,
      "\uf541": 5445,
      "\uf542": 5446,
      "\uf543": 5447,
      "\uf544": 5448,
      "\uf545": 5449,
      "\uf546": 5450,
      "\uf547": 5451,
      "\uf548": 5452,
      "\uf549": 5453,
      "\uf54a": 5454,
      "\uf54b": 5455,
      "\uf54c": 5456,
      "\uf54d": 5457,
      "\uf54e": 5458,
      "\uf54f": 5459,
      "\uf550": 5460,
      "\uf551": 5461,
      "\uf552": 5462,
      "\uf553": 5463,
      "\uf554": 5464,
      "\uf555": 5465,
      "\uf556": 5466,
      "\uf557": 5467,
      "\uf558": 5468,
      "\uf559": 5469,
      "\uf55a": 5470,
      "\uf55b": 5471,
      "\uf55c": 5472,
      "\uf55d": 5473,
      "\uf55e": 5474,
      "\uf55f": 5475,
      "\uf560": 5476,
      "\uf561": 5477,
      "\uf562": 5478,
      "\uf563": 5479,
      "\uf564": 5480,
      "\uf565": 5481,
      "\uf566": 5482,
      "\uf567": 5483,
      "\uf568": 5484,
      "\uf569": 5485,
      "\uf56a": 5486,
      "\uf56b": 5487,
      "\uf56c": 5488,
      "\uf56d": 5489,
      "\uf56e": 5490,
      "\uf56f": 5491,
      "\uf570": 5492,
      "\uf571": 5493,
      "\uf572": 5494,
      "\uf573": 5495,
      "\uf574": 5496,
      "\uf575": 5497,
      "\uf576": 5498,
      "\uf577": 5499,
      "\uf578": 5500,
      "\uf579": 5501,
      "\uf57a": 5502,
      "\uf57b": 5503,
      "\uf57c": 5504,
      "\uf57d": 5505,
      "\uf57e": 5506,
      "\uf57f": 5507,
      "\uf580": 5508,
      "\uf581": 5509,
      "\uf582": 5510,
      "\uf583": 5511,
      "\uf584": 5512,
      "\uf585": 5513,
      "\uf586": 5514,
      "\uf587": 5515,
      "\uf588": 5516,
      "\uf589": 5517,
      "\uf58a": 5518,
      "\uf58b": 5519,
      "\uf58c": 5520,
      "\uf58d": 5521,
      "\uf58e": 5522,
      "\uf58f": 5523,
      "\uf590": 5524,
      "\uf591": 5525,
      "\uf592": 5526,
      "\uf593": 5527,
      "\uf594": 5528,
      "\uf595": 5529,
      "\uf596": 5530,
      "\uf597": 5531,
      "\uf598": 5532,
      "\uf599": 5533,
      "\uf59a": 5534,
      "\uf59b": 5535,
      "\uf59c": 5536,
      "\uf59d": 5537,
      "\uf59e": 5538,
      "\uf59f": 5539,
      "\uf5a0": 5540,
      "\uf5a1": 5541,
      "\uf5a2": 5542,
      "\uf5a3": 5543,
      "\uf5a4": 5544,
      "\uf5a5": 5545,
      "\uf5a6": 5546,
      "\uf5a7": 5547,
      "\uf5a8": 5548,
      "\uf5a9": 5549,
      "\uf5aa": 5550,
      "\uf5ab": 5551,
      "\uf5ac": 5552,
      "\uf5ad": 5553,
      "\uf5ae": 5554,
      "\uf5af": 5555,
      "\uf5b0": 5556,
      "\uf5b1": 5557,
      "\uf5b2": 5558,
      "\uf5b3": 5559,
      "\uf5b4": 5560,
      "\uf5b5": 5561,
      "\uf5b6": 5562,
      "\uf5b7": 5563,
      "\uf5b8": 5564,
      "\uf5b9": 5565,
      "\uf5ba": 5566,
      "\uf5bb": 5567,
      "\uf5bc": 5568,
      "\uf5bd": 5569,
      "\uf5be": 5570,
      "\uf5bf": 5571,
      "\uf5c0": 5572,
      "\uf5c1": 5573,
      "\uf5c2": 5574,
      "\uf5c3": 5575,
      "\uf5c4": 5576,
      "\uf5c5": 5577,
      "\uf5c6": 5578,
      "\uf5c7": 5579,
      "\uf5c8": 5580,
      "\uf5c9": 5581,
      "\uf5ca": 5582,
      "\uf5cb": 5583,
      "\uf5cc": 5584,
      "\uf5cd": 5585,
      "\uf5ce": 5586,
      "\uf5cf": 5587,
      "\uf5d0": 5588,
      "\uf5d1": 5589,
      "\uf5d2": 5590,
      "\uf5d3": 5591,
      "\uf5d4": 5592,
      "\uf5d5": 5593,
      "\uf5d6": 5594,
      "\uf5d7": 5595,
      "\uf5d8": 5596,
      "\uf5d9": 5597,
      "\uf5da": 5598,
      "\uf5db": 5599,
      "\uf5dc": 5600,
      "\uf5dd": 5601,
      "\uf5de": 5602,
      "\uf5df": 5603,
      "\uf5e0": 5604,
      "\uf5e1": 5605,
      "\uf5e2": 5606,
      "\uf5e3": 5607,
      "\uf5e4": 5608,
      "\uf5e5": 5609,
      "\uf5e6": 5610,
      "\uf5e7": 5611,
      "\uf5e8": 5612,
      "\uf5e9": 5613,
      "\uf5ea": 5614,
      "\uf5eb": 5615,
      "\uf5ec": 5616,
      "\uf5ed": 5617,
      "\uf5ee": 5618,
      "\uf5ef": 5619,
      "\uf5f0": 5620,
      "\uf5f1": 5621,
      "\uf5f2": 5622,
      "\uf5f3": 5623,
      "\uf5f4": 5624,
      "\uf5f5": 5625,
      "\uf5f6": 5626,
      "\uf5f7": 5627,
      "\uf5f8": 5628,
      "\uf5f9": 5629,
      "\uf5fa": 5630,
      "\uf5fb": 5631,
      "\uf5fc": 5632,
      "\uf5fd": 5633,
      "\uf5fe": 5634,
      "\uf5ff": 5635,
      "\uf600": 5636,
      "\uf601": 5637,
      "\uf602": 5638,
      "\uf603": 5639,
      "\uf604": 5640,
      "\uf605": 5641,
      "\uf606": 5642,
      "\uf607": 5643,
      "\uf608": 5644,
      "\uf609": 5645,
      "\uf60a": 5646,
      "\uf60b": 5647,
      "\uf60c": 5648,
      "\uf60d": 5649,
      "\uf60e": 5650,
      "\uf60f": 5651,
      "\uf610": 5652,
      "\uf611": 5653,
      "\uf612": 5654,
      "\uf613": 5655,
      "\uf614": 5656,
      "\uf615": 5657,
      "\uf616": 5658,
      "\uf617": 5659,
      "\uf618": 5660,
      "\uf619": 5661,
      "\uf61a": 5662,
      "\uf61b": 5663,
      "\uf61c": 5664,
      "\uf61d": 5665,
      "\uf61e": 5666,
      "\uf61f": 5667,
      "\uf620": 5668,
      "\uf621": 5669,
      "\uf622": 5670,
      "\uf623": 5671,
      "\uf624": 5672,
      "\uf625": 5673,
      "\uf626": 5674,
      "\uf627": 5675,
      "\uf628": 5676,
      "\uf629": 5677,
      "\uf62a": 5678,
      "\uf62b": 5679,
      "\uf62c": 5680,
      "\uf62d": 5681,
      "\uf62e": 5682,
      "\uf62f": 5683,
      "\uf630": 5684,
      "\uf631": 5685,
      "\uf632": 5686,
      "\uf633": 5687,
      "\uf634": 5688,
      "\uf635": 5689,
      "\uf636": 5690,
      "\uf637": 5691,
      "\uf638": 5692,
      "\uf639": 5693,
      "\uf63a": 5694,
      "\uf63b": 5695,
      "\uf63c": 5696,
      "\uf63d": 5697,
      "\uf63e": 5698,
      "\uf63f": 5699,
      "\uf640": 5700,
      "\uf641": 5701,
      "\uf642": 5702,
      "\uf643": 5703,
      "\uf644": 5704,
      "\uf645": 5705,
      "\uf646": 5706,
      "\uf647": 5707,
      "\uf648": 5708,
      "\uf649": 5709,
      "\uf64a": 5710,
      "\uf64b": 5711,
      "\uf64c": 5712,
      "\uf64d": 5713,
      "\uf64e": 5714,
      "\uf64f": 5715,
      "\uf650": 5716,
      "\uf651": 5717,
      "\uf652": 5718,
      "\uf653": 5719,
      "\uf654": 5720,
      "\uf655": 5721,
      "\uf656": 5722,
      "\uf657": 5723,
      "\uf658": 5724,
      "\uf659": 5725,
      "\uf65a": 5726,
      "\uf65b": 5727,
      "\uf65c": 5728,
      "\uf65d": 5729,
      "\uf65e": 5730,
      "\uf65f": 5731,
      "\uf660": 5732,
      "\uf661": 5733,
      "\uf662": 5734,
      "\uf663": 5735,
      "\uf664": 5736,
      "\uf665": 5737,
      "\uf666": 5738,
      "\uf667": 5739,
      "\uf668": 5740,
      "\uf669": 5741,
      "\uf66a": 5742,
      "\uf66b": 5743,
      "\uf66c": 5744,
      "\uf66d": 5745,
      "\uf66e": 5746,
      "\uf66f": 5747,
      "\uf670": 5748,
      "\uf671": 5749,
      "\uf672": 5750,
      "\uf673": 5751,
      "\uf674": 5752,
      "\uf675": 5753,
      "\uf676": 5754,
      "\uf677": 5755,
      "\uf678": 5756,
      "\uf679": 5757,
      "\uf67a": 5758,
      "\uf67b": 5759,
      "\uf67c": 5760,
      "\uf67d": 5761,
      "\uf67e": 5762,
      "\uf67f": 5763,
      "\uf680": 5764,
      "\uf681": 5765,
      "\uf682": 5766,
      "\uf683": 5767,
      "\uf684": 5768,
      "\uf685": 5769,
      "\uf686": 5770,
      "\uf687": 5771,
      "\uf688": 5772,
      "\uf689": 5773,
      "\uf68a": 5774,
      "\uf68b": 5775,
      "\uf68c": 5776,
      "\uf68d": 5777,
      "\uf68e": 5778,
      "\uf68f": 5779,
      "\uf690": 5780,
      "\uf691": 5781,
      "\uf692": 5782,
      "\uf693": 5783,
      "\uf694": 5784,
      "\uf695": 5785,
      "\uf696": 5786,
      "\uf697": 5787,
      "\uf698": 5788,
      "\uf699": 5789,
      "\uf69a": 5790,
      "\uf69b": 5791,
      "\uf69c": 5792,
      "\uf69d": 5793,
      "\uf69e": 5794,
      "\uf69f": 5795,
      "\uf6a0": 5796,
      "\uf6a1": 5797,
      "\uf6a2": 5798,
      "\uf6a3": 5799,
      "\uf6a4": 5800,
      "\uf6a5": 5801,
      "\uf6a6": 5802,
      "\uf6a7": 5803,
      "\uf6a8": 5804,
      "\uf6a9": 5805,
      "\uf6aa": 5806,
      "\uf6ab": 5807,
      "\uf6ac": 5808,
      "\uf6ad": 5809,
      "\uf6ae": 5810,
      "\uf6af": 5811,
      "\uf6b0": 5812,
      "\uf6b1": 5813,
      "\uf6b2": 5814,
      "\uf6b3": 5815,
      "\uf6b4": 5816,
      "\uf6b5": 5817,
      "\uf6b6": 5818,
      "\uf6b7": 5819,
      "\uf6b8": 5820,
      "\uf6b9": 5821,
      "\uf6ba": 5822,
      "\uf6bb": 5823,
      "\uf6bc": 5824,
      "\uf6bd": 5825,
      "\uf6be": 5826,
      "\uf6bf": 5827,
      "\uf6c0": 5828,
      "\uf6c1": 5829,
      "\uf6c2": 5830,
      "\uf6c3": 5831,
      "\uf6c4": 5832,
      "\uf6c5": 5833,
      "\uf6c6": 5834,
      "\uf6c7": 5835,
      "\uf6c8": 5836,
      "\uf6c9": 5837,
      "\uf6ca": 5838,
      "\uf6cb": 5839,
      "\uf6cc": 5840,
      "\uf6cd": 5841,
      "\uf6ce": 5842,
      "\uf6cf": 5843,
      "\uf6d0": 5844,
      "\uf6d1": 5845,
      "\uf6d2": 5846,
      "\uf6d3": 5847,
      "\uf6d4": 5848,
      "\uf6d5": 5849,
      "\uf6d6": 5850,
      "\uf6d7": 5851,
      "\uf6d8": 5852,
      "\uf6d9": 5853,
      "\uf6da": 5854,
      "\uf6db": 5855,
      "\uf6dc": 5856,
      "\uf6dd": 5857,
      "\uf6de": 5858,
      "\uf6df": 5859,
      "\uf6e0": 5860,
      "\uf6e1": 5861,
      "\uf6e2": 5862,
      "\uf6e3": 5863,
      "\uf6e4": 5864,
      "\uf6e5": 5865,
      "\uf6e6": 5866,
      "\uf6e7": 5867,
      "\uf6e8": 5868,
      "\uf6e9": 5869,
      "\uf6ea": 5870,
      "\uf6eb": 5871,
      "\uf6ec": 5872,
      "\uf6ed": 5873,
      "\uf6ee": 5874,
      "\uf6ef": 5875,
      "\uf6f0": 5876,
      "\uf6f1": 5877,
      "\uf6f2": 5878,
      "\uf6f3": 5879,
      "\uf6f4": 5880,
      "\uf6f5": 5881,
      "\uf6f6": 5882,
      "\uf6f7": 5883,
      "\uf6f8": 5884,
      "\uf6f9": 5885,
      "\uf6fa": 5886,
      "\uf6fb": 5887,
      "\uf6fc": 5888,
      "\uf6fd": 5889,
      "\uf6fe": 5890,
      "\uf6ff": 5891,
      "\uf700": 5892,
      "\uf701": 5893,
      "\uf702": 5894,
      "\uf703": 5895,
      "\uf704": 5896,
      "\uf705": 5897,
      "\uf706": 5898,
      "\uf707": 5899,
      "\uf708": 5900,
      "\uf709": 5901,
      "\uf70a": 5902,
      "\uf70b": 5903,
      "\uf70c": 5904,
      "\uf70d": 5905,
      "\uf70e": 5906,
      "\uf70f": 5907,
      "\uf710": 5908,
      "\uf711": 5909,
      "\uf712": 5910,
      "\uf713": 5911,
      "\uf714": 5912,
      "\uf715": 5913,
      "\uf716": 5914,
      "\uf717": 5915,
      "\uf718": 5916,
      "\uf719": 5917,
      "\uf71a": 5918,
      "\uf71b": 5919,
      "\uf71c": 5920,
      "\uf71d": 5921,
      "\uf71e": 5922,
      "\uf71f": 5923,
      "\uf720": 5924,
      "\uf721": 5925,
      "\uf722": 5926,
      "\uf723": 5927,
      "\uf724": 5928,
      "\uf725": 5929,
      "\uf726": 5930,
      "\uf727": 5931,
      "\uf728": 5932,
      "\uf729": 5933,
      "\uf72a": 5934,
      "\uf72b": 5935,
      "\uf72c": 5936,
      "\uf72d": 5937,
      "\uf72e": 5938,
      "\uf72f": 5939,
      "\uf730": 5940,
      "\uf731": 5941,
      "\uf732": 5942,
      "\uf733": 5943,
      "\uf734": 5944,
      "\uf735": 5945,
      "\uf736": 5946,
      "\uf737": 5947,
      "\uf738": 5948,
      "\uf739": 5949,
      "\uf73a": 5950,
      "\uf73b": 5951,
      "\uf73c": 5952,
      "\uf73d": 5953,
      "\uf73e": 5954,
      "\uf73f": 5955,
      "\uf740": 5956,
      "\uf741": 5957,
      "\uf742": 5958,
      "\uf743": 5959,
      "\uf744": 5960,
      "\uf745": 5961,
      "\uf746": 5962,
      "\uf747": 5963,
      "\uf748": 5964,
      "\uf749": 5965,
      "\uf74a": 5966,
      "\uf74b": 5967,
      "\uf74c": 5968,
      "\uf74d": 5969,
      "\uf74e": 5970,
      "\uf74f": 5971,
      "\uf750": 5972,
      "\uf751": 5973,
      "\uf752": 5974,
      "\uf753": 5975,
      "\uf754": 5976,
      "\uf755": 5977,
      "\uf756": 5978,
      "\uf757": 5979,
      "\uf758": 5980,
      "\uf759": 5981,
      "\uf75a": 5982,
      "\uf75b": 5983,
      "\uf75c": 5984,
      "\uf75d": 5985,
      "\uf75e": 5986,
      "\uf75f": 5987,
      "\uf760": 5988,
      "\uf761": 5989,
      "\uf762": 5990,
      "\uf763": 5991,
      "\uf764": 5992,
      "\uf765": 5993,
      "\uf766": 5994,
      "\uf767": 5995,
      "\uf768": 5996,
      "\uf769": 5997,
      "\uf76a": 5998,
      "\uf76b": 5999,
      "\uf76c": 6000,
      "\uf76d": 6001,
      "\uf76e": 6002,
      "\uf76f": 6003,
      "\uf770": 6004,
      "\uf771": 6005,
      "\uf772": 6006,
      "\uf773": 6007,
      "\uf774": 6008,
      "\uf775": 6009,
      "\uf776": 6010,
      "\uf777": 6011,
      "\uf778": 6012,
      "\uf779": 6013,
      "\uf77a": 6014,
      "\uf77b": 6015,
      "\uf77c": 6016,
      "\uf77d": 6017,
      "\uf77e": 6018,
      "\uf77f": 6019,
      "\uf780": 6020,
      "\uf781": 6021,
      "\uf782": 6022,
      "\uf783": 6023,
      "\uf784": 6024,
      "\uf785": 6025,
      "\uf786": 6026,
      "\uf787": 6027,
      "\uf788": 6028,
      "\uf789": 6029,
      "\uf78a": 6030,
      "\uf78b": 6031,
      "\uf78c": 6032,
      "\uf78d": 6033,
      "\uf78e": 6034,
      "\uf78f": 6035,
      "\uf790": 6036,
      "\uf791": 6037,
      "\uf792": 6038,
      "\uf793": 6039,
      "\uf794": 6040,
      "\uf795": 6041,
      "\uf796": 6042,
      "\uf797": 6043,
      "\uf798": 6044,
      "\uf799": 6045,
      "\uf79a": 6046,
      "\uf79b": 6047,
      "\uf79c": 6048,
      "\uf79d": 6049,
      "\uf79e": 6050,
      "\uf79f": 6051,
      "\uf7a0": 6052,
      "\uf7a1": 6053,
      "\uf7a2": 6054,
      "\uf7a3": 6055,
      "\uf7a4": 6056,
      "\uf7a5": 6057,
      "\uf7a6": 6058,
      "\uf7a7": 6059,
      "\uf7a8": 6060,
      "\uf7a9": 6061,
      "\uf7aa": 6062,
      "\uf7ab": 6063,
      "\uf7ac": 6064,
      "\uf7ad": 6065,
      "\uf7ae": 6066,
      "\uf7af": 6067,
      "\uf7b0": 6068,
      "\uf7b1": 6069,
      "\uf7b2": 6070,
      "\uf7b3": 6071,
      "\uf7b4": 6072,
      "\uf7b5": 6073,
      "\uf7b6": 6074,
      "\uf7b7": 6075,
      "\uf7b8": 6076,
      "\uf7b9": 6077,
      "\uf7ba": 6078,
      "\uf7bb": 6079,
      "\uf7bc": 6080,
      "\uf7bd": 6081,
      "\uf7be": 6082,
      "\uf7bf": 6083,
      "\uf7c0": 6084,
      "\uf7c1": 6085,
      "\uf7c2": 6086,
      "\uf7c3": 6087,
      "\uf7c4": 6088,
      "\uf7c5": 6089,
      "\uf7c6": 6090,
      "\uf7c7": 6091,
      "\uf7c8": 6092,
      "\uf7c9": 6093,
      "\uf7ca": 6094,
      "\uf7cb": 6095,
      "\uf7cc": 6096,
      "\uf7cd": 6097,
      "\uf7ce": 6098,
      "\uf7cf": 6099,
      "\uf7d0": 6100,
      "\uf7d1": 6101,
      "\uf7d2": 6102,
      "\uf7d3": 6103,
      "\uf7d4": 6104,
      "\uf7d5": 6105,
      "\uf7d6": 6106,
      "\uf7d7": 6107,
      "\uf7d8": 6108,
      "\uf7d9": 6109,
      "\uf7da": 6110,
      "\uf7db": 6111,
      "\uf7dc": 6112,
      "\uf7dd": 6113,
      "\uf7de": 6114,
      "\uf7df": 6115,
      "\uf7e0": 6116,
      "\uf7e1": 6117,
      "\uf7e2": 6118,
      "\uf7e3": 6119,
      "\uf7e4": 6120,
      "\uf7e5": 6121,
      "\uf7e6": 6122,
      "\uf7e7": 6123,
      "\uf7e8": 6124,
      "\uf7e9": 6125,
      "\uf7ea": 6126,
      "\uf7eb": 6127,
      "\uf7ec": 6128,
      "\uf7ed": 6129,
      "\uf7ee": 6130,
      "\uf7ef": 6131,
      "\uf7f0": 6132,
      "\uf7f1": 6133,
      "\uf7f2": 6134,
      "\uf7f3": 6135,
      "\uf7f4": 6136,
      "\uf7f5": 6137,
      "\uf7f6": 6138,
      "\uf7f7": 6139,
      "\uf7f8": 6140,
      "\uf7f9": 6141,
      "\uf7fa": 6142,
      "\uf7fb": 6143,
      "\uf7fc": 6144,
      "\uf7fd": 6145,
      "\uf7fe": 6146,
      "\uf7ff": 6147,
      "\uf800": 6148,
      "\uf801": 6149,
      "\uf802": 6150,
      "\uf803": 6151,
      "\uf804": 6152,
      "\uf805": 6153,
      "\uf806": 6154,
      "\uf807": 6155,
      "\uf808": 6156,
      "\uf809": 6157,
      "\uf80a": 6158,
      "\uf80b": 6159,
      "\uf80c": 6160,
      "\uf80d": 6161,
      "\uf80e": 6162,
      "\uf80f": 6163,
      "\uf810": 6164,
      "\uf811": 6165,
      "\uf812": 6166,
      "\uf813": 6167,
      "\uf814": 6168,
      "\uf815": 6169,
      "\uf816": 6170,
      "\uf817": 6171,
      "\uf818": 6172,
      "\uf819": 6173,
      "\uf81a": 6174,
      "\uf81b": 6175,
      "\uf81c": 6176,
      "\uf81d": 6177,
      "\uf81e": 6178,
      "\uf81f": 6179,
      "\uf820": 6180,
      "\uf821": 6181,
      "\uf822": 6182,
      "\uf823": 6183,
      "\uf824": 6184,
      "\uf825": 6185,
      "\uf826": 6186,
      "\uf827": 6187,
      "\uf828": 6188,
      "\uf829": 6189,
      "\uf82a": 6190,
      "\uf82b": 6191,
      "\uf82c": 6192,
      "\uf82d": 6193,
      "\uf82e": 6194,
      "\uf82f": 6195,
      "\uf830": 6196,
      "\uf831": 6197,
      "\uf832": 6198,
      "\uf833": 6199,
      "\uf834": 6200,
      "\uf835": 6201,
      "\uf836": 6202,
      "\uf837": 6203,
      "\uf838": 6204,
      "\uf839": 6205,
      "\uf83a": 6206,
      "\uf83b": 6207,
      "\uf83c": 6208,
      "\uf83d": 6209,
      "\uf83e": 6210,
      "\uf83f": 6211,
      "\uf840": 6212,
      "\uf841": 6213,
      "\uf842": 6214,
      "\uf843": 6215,
      "\uf844": 6216,
      "\uf845": 6217,
      "\uf846": 6218,
      "\uf847": 6219,
      "\uf848": 6220,
      "\uf849": 6221,
      "\uf84a": 6222,
      "\uf84b": 6223,
      "\uf84c": 6224,
      "\uf84d": 6225,
      "\uf84e": 6226,
      "\uf84f": 6227,
      "\uf850": 6228,
      "\uf851": 6229,
      "\uf852": 6230,
      "\uf853": 6231,
      "\uf854": 6232,
      "\uf855": 6233,
      "\uf856": 6234,
      "\uf857": 6235,
      "\uf858": 6236,
      "\uf859": 6237,
      "\uf85a": 6238,
      "\uf85b": 6239,
      "\uf85c": 6240,
      "\uf85d": 6241,
      "\uf85e": 6242,
      "\uf85f": 6243,
      "\uf860": 6244,
      "\uf861": 6245,
      "\uf862": 6246,
      "\uf863": 6247,
      "\uf864": 6248,
      "\uf865": 6249,
      "\uf866": 6250,
      "\uf867": 6251,
      "\uf868": 6252,
      "\uf869": 6253,
      "\uf86a": 6254,
      "\uf86b": 6255,
      "\uf86c": 6256,
      "\uf86d": 6257,
      "\uf86e": 6258,
      "\uf86f": 6259,
      "\uf870": 6260,
      "\uf871": 6261,
      "\uf872": 6262,
      "\uf873": 6263,
      "\uf874": 6264,
      "\uf875": 6265,
      "\uf876": 6266,
      "\uf877": 6267,
      "\uf878": 6268,
      "\uf879": 6269,
      "\uf87a": 6270,
      "\uf87b": 6271,
      "\uf87c": 6272,
      "\uf87d": 6273,
      "\uf87e": 6274,
      "\uf87f": 6275,
      "\uf880": 6276,
      "\uf881": 6277,
      "\uf882": 6278,
      "\uf883": 6279,
      "\uf884": 6280,
      "\uf885": 6281,
      "\uf886": 6282,
      "\uf887": 6283,
      "\uf888": 6284,
      "\uf889": 6285,
      "\uf88a": 6286,
      "\uf88b": 6287,
      "\uf88c": 6288,
      "\uf88d": 6289,
      "\uf88e": 6290,
      "\uf88f": 6291,
      "\uf890": 6292,
      "\uf891": 6293,
      "\uf892": 6294,
      "\uf893": 6295,
      "\uf894": 6296,
      "\uf895": 6297,
      "\uf896": 6298,
      "\uf897": 6299,
      "\uf898": 6300,
      "\uf899": 6301,
      "\uf89a": 6302,
      "\uf89b": 6303,
      "\uf89c": 6304,
      "\uf89d": 6305,
      "\uf89e": 6306,
      "\uf89f": 6307,
      "\uf8a0": 6308,
      "\uf8a1": 6309,
      "\uf8a2": 6310,
      "\uf8a3": 6311,
      "\uf8a4": 6312,
      "\uf8a5": 6313,
      "\uf8a6": 6314,
      "\uf8a7": 6315,
      "\uf8a8": 6316,
      "\uf8a9": 6317,
      "\uf8aa": 6318,
      "\uf8ab": 6319,
      "\uf8ac": 6320,
      "\uf8ad": 6321,
      "\uf8ae": 6322,
      "\uf8af": 6323,
      "\uf8b0": 6324,
      "\uf8b1": 6325,
      "\uf8b2": 6326,
      "\uf8b3": 6327,
      "\uf8b4": 6328,
      "\uf8b5": 6329,
      "\uf8b6": 6330,
      "\uf8b7": 6331,
      "\uf8b8": 6332,
      "\uf8b9": 6333,
      "\uf8ba": 6334,
      "\uf8bb": 6335,
      "\uf8bc": 6336,
      "\uf8bd": 6337,
      "\uf8be": 6338,
      "\uf8bf": 6339,
      "\uf8c0": 6340,
      "\uf8c1": 6341,
      "\uf8c2": 6342,
      "\uf8c3": 6343,
      "\uf8c4": 6344,
      "\uf8c5": 6345,
      "\uf8c6": 6346,
      "\uf8c7": 6347,
      "\uf8c8": 6348,
      "\uf8c9": 6349,
      "\uf8ca": 6350,
      "\uf8cb": 6351,
      "\uf8cc": 6352,
      "\uf8cd": 6353,
      "\uf8ce": 6354,
      "\uf8cf": 6355,
      "\uf8d0": 6356,
      "\uf8d1": 6357,
      "\uf8d2": 6358,
      "\uf8d3": 6359,
      "\uf8d4": 6360,
      "\uf8d5": 6361,
      "\uf8d6": 6362,
      "\uf8d7": 6363,
      "\uf8d8": 6364,
      "\uf8d9": 6365,
      "\uf8da": 6366,
      "\uf8db": 6367,
      "\uf8dc": 6368,
      "\uf8dd": 6369,
      "\uf8de": 6370,
      "\uf8df": 6371,
      "\uf8e0": 6372,
      "\uf8e1": 6373,
      "\uf8e2": 6374,
      "\uf8e3": 6375,
      "\uf8e4": 6376,
      "\uf8e5": 6377,
      "\uf8e6": 6378,
      "\uf8e7": 6379,
      "\uf8e8": 6380,
      "\uf8e9": 6381,
      "\uf8ea": 6382,
      "\uf8eb": 6383,
      "\uf8ec": 6384,
      "\uf8ed": 6385,
      "\uf8ee": 6386,
      "\uf8ef": 6387,
      "\uf8f0": 6388,
      "\ue4a9\ue407": 6389,
      "\uf646\ue06f": 6390,
      "\ue4a2\ue407": 6391,
      "\ue4a1\ue407": 6392,
      "\ue4b6\ue407": 6393,
      "\uf646\ue021": 6394,
      "\uf646\ue29a": 6395,
      "\uf646\ue0de": 6396,
      "\uf646\ue016": 6397,
      "\uf646\ue378": 6398,
      "\uf646\ue3e7": 6399,
      "\uf646\ue309": 6400,
      "\ue4a4\ue407": 6401,
      "\uf646\ue00b": 6402,
      "\uf646\ue22b": 6403,
      "\uf646\ue14d": 6404,
      "\ue4c8\ue407": 6405,
      "\ue4a7\ue407": 6406,
      "\uf646\ue06f\ue4a9\ue407": 6407,
      "\ue4ab\ue407": 6408,
      "\ue4c6\ue407": 6409,
      "\uf646\ue1bc": 6410,
      "\ue4ad\ue407": 6411,
      "\uf646\ue02c": 6412,
      "\uf646\ue037": 6413,
      "\uf646\ue042": 6414,
      "\uf646\ue085": 6415,
      "\uf646\ue09b": 6416,
      "\uf646\ue04d": 6417,
      "\ue4b3\ue407": 6418,
      "\uf646\ue063": 6419,
      "\uf646\ue06e": 6420,
      "\uf646\ue058": 6421,
      "\uf646\ue090": 6422,
      "\uf646\ue07a": 6423,
      "\ue06f\ue4a9\ue407": 6424,
      "\uf646\ue0a6": 6425,
      "\uf646\ue0b1": 6426,
      "\ue4a2\ue407\uf88f": 6427,
      "\ue4bf\ue416": 6428,
      "\ue4c1\ue416": 6429,
      "\ue4b9\ue416": 6430,
      "\uf646\ue0c7": 6431,
      "\ue4d5\ue407": 6432,
      "\uf646\ue0bc": 6433,
      "\ue4a5\ue407": 6434,
      "\ue4bd\ue416": 6435,
      "\ue4bb\ue416": 6436,
      "\ue3e8\uf88f": 6437,
      "\ue4b7\ue416": 6438,
      "\uf646\ue0d2": 6439,
      "\uf646\ue0dd": 6440,
      "\uf646\ue0e9": 6441,
      "\uf646\ue0de\ue4a9\ue407": 6442,
      "\uf646\ue06f\ue4a1\ue407": 6443,
      "\ue4a3\ue407": 6444,
      "\ue3e8\uf872": 6445,
      "\uf646\ue10a": 6446,
      "\uf646\ue0f4": 6447,
      "\ue4a9\ue407\uf88f": 6448,
      "\uf646\ue06f\ue4b6\ue407": 6449,
      "\uf646\ue141": 6450,
      "\uf646\ue0ff": 6451,
      "\ue4bf\ue3e8": 6452,
      "\ue4bd\ue3e8": 6453,
      "\ue4c1\ue3e8": 6454,
      "\uf646\ue120": 6455,
      "\ue41f\uf88f": 6456,
      "\ue4c4\ue416": 6457,
      "\uf646\ue12b": 6458,
      "\ue4a9\ue407\uf872": 6459,
      "\ue4c0\ue407": 6460,
      "\uf646\ue115": 6461,
      "\ue4a1\ue407\uf88f": 6462,
      "\uf646\ue158": 6463,
      "\ue4c3\ue416": 6464,
      "\ue4c4\ue3e8": 6465,
      "\uf646\ue14c": 6466,
      "\ue4b4\ue416": 6467,
      "\uf646\ue136": 6468,
      "\ue407\uf88f": 6469,
      "\ue4b9\ue3e8": 6470,
      "\uf646\ue163": 6471,
      "\ue4be\ue416": 6472,
      "\uf646\ue16e": 6473,
      "\uf646\ue179": 6474,
      "\ue4bb\ue407": 6475,
      "\ue4c2\ue416": 6476,
      "\ue4a4\ue407\uf88f": 6477,
      "\ue4c2\ue3e8": 6478,
      "\ue0de\ue4a9\ue407": 6479,
      "\ue4c6\ue3e8": 6480,
      "\ue4b7\ue3e8": 6481,
      "\ue4a2\ue407\uf872": 6482,
      "\uf646\ue184": 6483,
      "\ue4c1\ue407": 6484,
      "\ue4bb\ue3e8": 6485,
      "\ue06f\ue4a1\ue407": 6486,
      "\ue4b2\ue416": 6487,
      "\uf646\ue06f\ue4a2\ue407": 6488,
      "\uf646\ue18f": 6489,
      "\ue41c\uf8eb": 6490,
      "\ue4bf\ue407": 6491,
      "\uf646\ue14d\ue4a9\ue407": 6492,
      "\uf646\ue1c7": 6493,
      "\uf646\ue06f\ue4c8\ue407": 6494,
      "\uf646\ue19a": 6495,
      "\uf646\ue06f\ue4a7\ue407": 6496,
      "\uf646\ue06f\ue4a4\ue407": 6497,
      "\ue49f\ue41f": 6498,
      "\ue410\uf88f": 6499,
      "\ue4b0\ue407": 6500,
      "\ue4bf\ue418": 6501,
      "\ue4c1\ue418": 6502,
      "\uf646\ue1bb": 6503,
      "\ue4a2\ue41f": 6504,
      "\uf646\ue1b0": 6505,
      "\uf646\ue1a5": 6506,
      "\uf646\ue06f\ue4c6\ue407": 6507,
      "\ue4a4\ue41f": 6508,
      "\ue06f\ue4b6\ue407": 6509,
      "\uf646\ue06f\ue4ad\ue407": 6510,
      "\ue4c3\ue3e8": 6511,
      "\ue4ca\ue3e8": 6512,
      "\ue49d\ue41f": 6513,
      "\ue4c6\ue416": 6514,
      "\ue4be\ue3e8": 6515,
      "\ue4c0\ue3e8": 6516,
      "\ue4ba\ue416": 6517,
      "\ue4c0\ue416": 6518,
      "\ue4b8\ue416": 6519,
      "\ue4bf\ue415": 6520,
      "\ue4b5\ue416": 6521,
      "\uf646\ue29a\ue4a9\ue407": 6522,
      "\ue4c1\ue415": 6523,
      "\ue4b9\ue418": 6524,
      "\ue4b9\ue415": 6525,
      "\ue4ba\ue3e8": 6526,
      "\ue4c9\ue3e8": 6527,
      "\ue4cc\ue3e8": 6528,
      "\ue4bd\ue415": 6529,
      "\ue14d\ue4a9\ue407": 6530,
      "\ue41c\uf872": 6531,
      "\ue4b6\ue416": 6532,
      "\ue4bd\ue418": 6533,
      "\ue42f\uf88f": 6534,
      "\ue4a4\ue421": 6535,
      "\ue499\ue407": 6536,
      "\ue06f\ue4a7\ue407": 6537,
      "\ue4a9\ue407\uf8db": 6538,
      "\ue4a1\ue407\uf872": 6539,
      "\ue06f\ue4a2\ue407": 6540,
      "\ue41c\uf88f": 6541,
      "\ue4bb\ue418": 6542,
      "\uf646\ue22b\ue4a9\ue407": 6543,
      "\ue407\uf872": 6544,
      "\ue06f\ue4a4\ue407": 6545,
      "\uf646\ue0de\ue4b6\ue407": 6546,
      "\ue4a2\ue421": 6547,
      "\ue49f\ue421": 6548,
      "\ue4c5\ue3e8": 6549,
      "\ue41a\uf8eb": 6550,
      "\ue42f\uf872": 6551,
      "\ue41a\uf872": 6552,
      "\uf646\ue1d2": 6553,
      "\uf646\ue309\ue4a9\ue407": 6554,
      "\ue4bb\ue415": 6555,
      "\ue4c4\ue418": 6556,
      "\ue4b7\ue415": 6557,
      "\uf646\ue1dd": 6558,
      "\ue41f\uf872": 6559,
      "\ue4b8\ue3e8": 6560,
      "\ue4b8\ue407": 6561,
      "\ue4a4\ue407\uf872": 6562,
      "\ue4ce\ue3e8": 6563,
      "\uf646\ue1bc\ue4a9\ue407": 6564,
      "\uf646\ue06f\ue4b3\ue407": 6565,
      "\ue41a\uf88f": 6566,
      "\ue4b5\ue3e8": 6567,
      "\ue06f\ue4c8\ue407": 6568,
      "\uf646\ue236": 6569,
      "\uf646\ue1f3": 6570,
      "\uf646\ue378\ue4a9\ue407": 6571,
      "\ue4c8\ue3e8": 6572,
      "\uf646\ue3e7\ue4a9\ue407": 6573,
      "\uf646\ue1fe": 6574,
      "\uf646\ue1e8": 6575,
      "\ue4b7\ue418": 6576,
      "\uf646\ue06f\ue4ab\ue407": 6577,
      "\ue4d4\ue407": 6578,
      "\ue4a1\ue41f": 6579,
      "\ue424\uf88f": 6580,
      "\ue4a7\ue407\uf88f": 6581,
      "\ue4af\ue416": 6582,
      "\ue4be\ue407": 6583,
      "\ue4ac\ue407": 6584,
      "\uf646\ue06f\ue4d5\ue407": 6585,
      "\ue06f\ue4ad\ue407": 6586,
      "\ue4bf\ue410": 6587,
      "\ue4c6\ue418": 6588,
      "\uf646\ue24c": 6589,
      "\uf646\ue021\ue4a9\ue407": 6590,
      "\ue4b4\ue3e8": 6591,
      "\ue4b5\ue407": 6592,
      "\ue06f\ue4c6\ue407": 6593,
      "\uf646\ue22a": 6594,
      "\ue4c3\ue418": 6595,
      "\ue4c2\ue418": 6596,
      "\uf646\ue214": 6597,
      "\ue29a\ue4a9\ue407": 6598,
      "\uf646\ue21f": 6599,
      "\ue49d\ue421": 6600,
      "\uf646\ue209": 6601,
      "\ue4c1\ue410": 6602,
      "\ue424\uf872": 6603,
      "\ue4af\ue3e8": 6604,
      "\ue4a7\ue41f": 6605,
      "\uf646\ue2dc": 6606,
      "\ue4ab\ue407\uf88f": 6607,
      "\uf646\ue29a\ue4b6\ue407": 6608,
      "\ue4b2\ue3e8": 6609,
      "\ue4c4\ue415": 6610,
      "\ue22b\ue4a9\ue407": 6611,
      "\ue4a7\ue421": 6612,
      "\uf646\ue00b\ue4a9\ue407": 6613,
      "\ue4bd\ue410": 6614,
      "\ue4b9\ue419": 6615,
      "\ue4bd\ue407": 6616,
      "\ue4c5\ue416": 6617,
      "\uf646\ue016\ue4a9\ue407": 6618,
      "\ue1bc\ue4a9\ue407": 6619,
      "\uf646\ue0de\ue4a1\ue407": 6620,
      "\ue4ac\ue416": 6621,
      "\uf646\ue26d": 6622,
      "\ue4a8\ue407": 6623,
      "\ue4b9\ue407": 6624,
      "\ue4aa\ue407": 6625,
      "\uf646\ue283": 6626,
      "\ue4c5\ue407": 6627,
      "\ue4d3\ue407": 6628,
      "\ue4c6\ue42f": 6629,
      "\uf646\ue14d\ue4b6\ue407": 6630,
      "\uf646\ue0de\ue4c6\ue407": 6631,
      "\ue4bf\ue42f": 6632,
      "\ue309\ue4a9\ue407": 6633,
      "\ue4b6\ue3e8": 6634,
      "\uf646\ue278": 6635,
      "\uf646\ue06f\ue4a5\ue407": 6636,
      "\ue4a1\ue421": 6637,
      "\ue4b9\ue410": 6638,
      "\ue4c4\ue42f": 6639,
      "\ue4cb\ue3e8": 6640,
      "\ue4be\ue418": 6641,
      "\uf646\ue241": 6642,
      "\ue49a\ue41f": 6643,
      "\ue4a0\ue41f": 6644,
      "\ue4ae\ue416": 6645,
      "\ue499\ue41f": 6646,
      "\ue4c4\ue410": 6647,
      "\ue4c9\ue416": 6648,
      "\ue4ab\ue407\uf872": 6649,
      "\ue4d1\ue3e8": 6650,
      "\uf646\ue2c6": 6651,
      "\ue4cf\ue3e8": 6652,
      "\uf646\ue2b0": 6653,
      "\ue4aa\ue3e8": 6654,
      "\ue4c1\ue42f": 6655,
      "\ue378\ue4a9\ue407": 6656,
      "\uf646\ue299": 6657,
      "\ue4be\ue415": 6658,
      "\ue417\uf88f": 6659,
      "\ue4c3\ue415": 6660,
      "\uf646\ue262": 6661,
      "\uf646\ue28e": 6662,
      "\uf646\ue2a5": 6663,
      "\ue4b4\ue418": 6664,
      "\ue06f\ue4ab\ue407": 6665,
      "\ue4b4\ue415": 6666,
      "\uf646\ue314": 6667,
      "\ue419\uf88f": 6668,
      "\uf646\ue335": 6669,
      "\ue442\uf88f": 6670,
      "\uf646\ue0de\ue4b3\ue407": 6671,
      "\ue4c6\ue415": 6672,
      "\ue021\ue4a9\ue407": 6673,
      "\ue4c2\ue415": 6674,
      "\uf646\ue257": 6675,
      "\ue3e7\ue4a9\ue407": 6676,
      "\uf646\ue2bb": 6677,
      "\ue06f\ue4b3\ue407": 6678,
      "\ue420\uf88f": 6679,
      "\ue421\uf88f": 6680,
      "\ue4ac\ue3e8": 6681,
      "\ue4c6\ue410": 6682,
      "\uf646\ue2d1": 6683,
      "\ue4bf\ue417": 6684,
      "\ue4cc\ue42f": 6685,
      "\ue419\uf872": 6686,
      "\ue454\uf872": 6687,
      "\ue4ad\ue407\uf88f": 6688,
      "\uf646\ue32a": 6689,
      "\uf646\ue0de\ue4a2\ue407": 6690,
      "\uf646\ue2fd": 6691,
      "\uf646\ue308": 6692,
      "\ue4b9\ue41c": 6693,
      "\ue06f\ue4d5\ue407": 6694,
      "\ue3ee\uf8d0": 6695,
      "\ue4ad\ue407\uf872": 6696,
      "\ue4bb\ue410": 6697,
      "\ue4cd\ue3e8": 6698,
      "\ue4a2\ue407\uf87d": 6699,
      "\ue4bd\ue42f": 6700,
      "\ue425\uf88f": 6701,
      "\ue4c0\ue418": 6702,
      "\ue4aa\ue416": 6703,
      "\ue4ca\ue42f": 6704,
      "\uf646\ue2f2": 6705,
      "\ue4c1\ue417": 6706,
      "\ue4b4\ue419": 6707,
      "\uf646\ue22b\ue4b6\ue407": 6708,
      "\ue016\ue4a9\ue407": 6709,
      "\uf646\ue31f": 6710,
      "\ue0de\ue4b6\ue407": 6711,
      "\ue4b2\ue419": 6712,
      "\ue4a2\ue407\uf8eb": 6713,
      "\ue4bf\ue431": 6714,
      "\ue00b\ue4a9\ue407": 6715,
      "\ue4b7\ue419": 6716,
      "\uf646\ue2e7": 6717,
      "\ue4b9\ue41a": 6718,
      "\ue4aa\ue421": 6719,
      "\ue4b7\ue410": 6720,
      "\ue4b2\ue418": 6721,
      "\ue43c\uf88f": 6722,
      "\ue425\uf872": 6723,
      "\ue4a4\ue41e": 6724,
      "\ue4a2\ue41e": 6725,
      "\ue420\uf872": 6726,
      "\ue4c1\ue431": 6727,
      "\uf646\ue001": 6728,
      "\ue4bf\ue419": 6729,
      "\uf646\ue356": 6730,
      "\ue0de\ue4c6\ue407": 6731,
      "\ue4bd\ue419": 6732,
      "\ue4c2\ue42f": 6733,
      "\uf646\ue383": 6734,
      "\ue4aa\ue41f": 6735,
      "\ue4bd\ue417": 6736,
      "\ue4ba\ue418": 6737,
      "\ue4c2\ue410": 6738,
      "\ue4b4\ue41c": 6739,
      "\ue4a7\ue407\uf872": 6740,
      "\ue4b4\ue41a": 6741,
      "\uf646\ue1bc\ue4b6\ue407": 6742,
      "\ue4b3\ue3e8": 6743,
      "\ue4ce\ue42f": 6744,
      "\ue4a8\ue41f": 6745,
      "\ue4d4\ue3e8": 6746,
      "\ue4cd\ue407": 6747,
      "\uf646\ue36c": 6748,
      "\ue4c9\ue42f": 6749,
      "\ue454\uf88f": 6750,
      "\ue4bd\ue431": 6751,
      "\ue4ae\ue407": 6752,
      "\uf646\ue06f\ue4a2\ue407\uf88f": 6753,
      "\uf646\ue361": 6754,
      "\uf646\ue399": 6755,
      "\ue4c9\ue418": 6756,
      "\uf646\ue34b": 6757,
      "\ue4c8\ue407\uf88f": 6758,
      "\ue4c4\ue431": 6759,
      "\uf646\ue0de\ue4a7\ue407": 6760,
      "\ue4c8\ue416": 6761,
      "\ue06f\ue4a5\ue407": 6762,
      "\ue43f\uf88f": 6763,
      "\ue49c\ue41f": 6764,
      "\ue4b9\ue42f": 6765,
      "\ue4c0\ue415": 6766,
      "\ue4ba\ue415": 6767,
      "\ue421\uf872": 6768,
      "\ue4b9\ue417": 6769,
      "\ue4d0\ue3e8": 6770,
      "\ue0de\ue4a1\ue407": 6771,
      "\uf646\ue06f\ue4a1\ue407\uf88f": 6772,
      "\ue4ce\ue407": 6773,
      "\ue4a8\ue3e8": 6774,
      "\ue4c5\ue418": 6775,
      "\ue4b2\ue41c": 6776,
      "\ue4a3\ue41f": 6777,
      "\ue4bf\ue41a": 6778,
      "\ue4b2\ue415": 6779,
      "\uf646\ue14d\ue4a1\ue407": 6780,
      "\uf646\ue0de\ue4a4\ue407": 6781,
      "\ue4a3\ue407\uf88f": 6782,
      "\ue432\uf872": 6783,
      "\ue4b2\ue41a": 6784,
      "\ue4c4\ue434": 6785,
      "\ue4bf\ue41c": 6786,
      "\ue4b7\ue41c": 6787,
      "\ue432\uf88f": 6788,
      "\ue4b7\ue407": 6789,
      "\ue4ad\ue3e8": 6790,
      "\ue4b7\ue41a": 6791,
      "\ue4bf\ue434": 6792,
      "\ue4c4\ue417": 6793,
      "\ue4c1\ue434": 6794,
      "\ue4b7\ue42f": 6795,
      "\uf646\ue0de\ue4ad\ue407": 6796,
      "\ue41b\uf88f": 6797,
      "\ue4c1\ue41a": 6798,
      "\ue29a\ue4b6\ue407": 6799,
      "\ue4c3\ue410": 6800,
      "\ue4a8\ue421": 6801,
      "\ue4ca\ue416": 6802,
      "\ue4d1\ue42f": 6803,
      "\ue4bf\ue43c": 6804,
      "\ue4bb\ue41a": 6805,
      "\ue4af\ue419": 6806,
      "\ue49e\ue41f": 6807,
      "\ue4d4\ue42f": 6808,
      "\uf646\ue340": 6809,
      "\ue4bb\ue419": 6810,
      "\ue44b\uf88f": 6811,
      "\ue4b6\ue407\uf88f": 6812,
      "\ue4bb\ue42f": 6813,
      "\ue4c1\ue43c": 6814,
      "\ue4a5\ue41f": 6815,
      "\uf646\ue3e6": 6816,
      "\ue4be\ue410": 6817,
      "\uf646\ue38e": 6818,
      "\ue4b5\ue415": 6819,
      "\ue4af\ue407": 6820,
      "\ue4b6\ue418": 6821,
      "\ue4a2\ue407\uf888": 6822,
      "\ue3ee\uf88f": 6823,
      "\ue45a\uf872": 6824,
      "\ue4c3\ue42f": 6825,
      "\ue4a4\ue3e8": 6826,
      "\ue4a7\ue41e": 6827,
      "\ue4c1\ue419": 6828,
      "\ue4c0\ue410": 6829,
      "\ue45a\uf88f": 6830,
      "\ue4cb\ue407": 6831,
      "\uf646\ue14d\ue4c6\ue407": 6832,
      "\ue4b3\ue416": 6833,
      "\ue4a5\ue407\uf88f": 6834,
      "\uf646\ue377": 6835,
      "\ue4bb\ue417": 6836,
      "\ue4bd\ue43c": 6837,
      "\ue4b8\ue415": 6838,
      "\ue43e\uf88f": 6839,
      "\uf646\ue06f\ue4c0\ue407": 6840,
      "\ue4a0\ue421": 6841,
      "\ue4ae\ue3e8": 6842,
      "\ue4c6\ue431": 6843,
      "\uf646\ue021\ue4b6\ue407": 6844,
      "\uf646\ue3af": 6845,
      "\ue4bf\ue430": 6846,
      "\ue4c8\ue407\uf872": 6847,
      "\ue4a7\ue3e8": 6848,
      "\ue4aa\ue41e": 6849,
      "\ue4ca\ue418": 6850,
      "\ue4a3\ue421": 6851,
      "\ue4c2\ue417": 6852,
      "\ue4c1\ue430": 6853,
      "\ue4b6\ue415": 6854,
      "\ue4c6\ue434": 6855,
      "\ue4ac\ue41f": 6856,
      "\uf646\ue06f\ue4a3\ue407": 6857,
      "\ue4c2\ue431": 6858,
      "\ue498\ue407": 6859,
      "\ue424\uf8c9": 6860,
      "\uf646\ue06f\ue4bb\ue407": 6861,
      "\uf646\ue14d\ue4c8\ue407": 6862,
      "\ue435\uf88f": 6863,
      "\uf646\ue0de\ue4c8\ue407": 6864,
      "\uf646\ue1bc\ue4c8\ue407": 6865,
      "\ue4a2\ue3e8": 6866,
      "\ue4b3\ue407\uf88f": 6867,
      "\uf646\ue037\ue4a9\ue407": 6868,
      "\uf646\ue06f\ue4c1\ue407": 6869,
      "\ue49f\ue41e": 6870,
      "\ue4b9\ue431": 6871,
      "\ue4c1\ue41c": 6872,
      "\uf646\ue3ba": 6873,
      "\ue4ca\ue410": 6874,
      "\ue06f\ue4a3\ue407": 6875,
      "\uf646\ue309\ue4b6\ue407": 6876,
      "\ue4d8\ue407": 6877,
      "\uf646\ue14d\ue4a4\ue407": 6878,
      "\uf646\ue3c5": 6879,
      "\ue4b8\ue418": 6880,
      "\ue4ba\ue410": 6881,
      "\ue14d\ue4b6\ue407": 6882,
      "\uf646\ue3a4": 6883,
      "\ue4a9\ue3e8": 6884,
      "\ue4b7\ue417": 6885,
      "\ue4ac\ue419": 6886,
      "\ue4bd\ue41c": 6887,
      "\ue4a8\ue41e": 6888,
      "\ue4bb\ue41c": 6889,
      "\uf646\ue3db": 6890,
      "\ue4ac\ue41c": 6891,
      "\uf646\ue06f\ue4a9\ue407\uf88f": 6892,
      "\uf646\ue3d0": 6893,
      "\ue49a\ue421": 6894,
      "\ue4cc\ue416": 6895,
      "\ue4ab\ue3e8": 6896,
      "\ue4b5\ue419": 6897,
      "\ue430\uf872": 6898,
      "\ue4a9\ue407\uf8d0": 6899,
      "\ue4c4\ue43c": 6900,
      "\uf646\ue004": 6901,
      "\uf646\ue0de\ue4a2\ue407\uf88f": 6902,
      "\uf646\ue0de\ue4ab\ue407": 6903,
      "\ue4cf\ue42f": 6904,
      "\uf646\ue04a": 6905,
      "\ue4d3\ue3e8": 6906,
      "\ue4c9\ue410": 6907,
      "\ue4bb\ue431": 6908,
      "\ue4b0\ue416": 6909,
      "\ue4ac\ue421": 6910,
      "\uf646\ue0de\ue4a9\ue407\uf88f": 6911,
      "\ue4af\ue41c": 6912,
      "\ue4a7\ue416": 6913,
      "\ue4c2\ue434": 6914,
      "\ue4c6\ue417": 6915,
      "\uf646\ue378\ue4b6\ue407": 6916,
      "\ue4a2\ue407\uf8db": 6917,
      "\ue4c9\ue415": 6918,
      "\ue4a9\ue407\uf8e6": 6919,
      "\ue4b5\ue418": 6920,
      "\ue4c4\ue419": 6921,
      "\ue4a1\ue407\uf8db": 6922,
      "\ue4b9\ue43c": 6923,
      "\ue4ab\ue407\uf8db": 6924,
      "\ue4c8\ue418": 6925,
      "\ue4b0\ue3e8": 6926,
      "\ue0de\ue4a2\ue407": 6927,
      "\ue06f\ue4a1\ue407\uf88f": 6928,
      "\ue4bd\ue430": 6929,
      "\uf646\ue017": 6930,
      "\ue4ba\ue419": 6931,
      "\uf646\ue22b\ue4a1\ue407": 6932,
      "\ue4bd\ue434": 6933,
      "\ue4c0\ue42f": 6934,
      "\ue4c8\ue42f": 6935,
      "\uf646\ue038": 6936,
      "\uf646\ue3e7\ue4b6\ue407": 6937,
      "\uf646\ue005": 6938,
      "\ue4c4\ue41b": 6939,
      "\uf646\ue00a": 6940,
      "\ue06f\ue4a2\ue407\uf88f": 6941,
      "\ue40e\uf88f": 6942,
      "\ue4cf\ue407": 6943,
      "\ue14d\ue4a1\ue407": 6944,
      "\ue4be\ue42f": 6945,
      "\ue4bd\ue41a": 6946,
      "\ue4d7\ue3e8": 6947,
      "\ue443\uf88f": 6948,
      "\uf646\ue06f\ue4b0\ue407": 6949,
      "\ue4c4\ue41a": 6950,
      "\ue4be\ue417": 6951,
      "\uf646\ue14d\ue4b3\ue407": 6952,
      "\ue4ad\ue407\uf8db": 6953,
      "\ue3fe\uf88f": 6954,
      "\ue4c4\ue430": 6955,
      "\ue4a5\ue421": 6956,
      "\ue4c6\ue407\uf872": 6957,
      "\uf646\ue22b\ue4b3\ue407": 6958,
      "\ue4c6\ue41a": 6959,
      "\ue4c6\ue407\uf88f": 6960,
      "\uf646\ue02c\ue4a9\ue407": 6961,
      "\ue41e\uf88f": 6962,
      "\ue0de\ue4a4\ue407": 6963,
      "\ue422\uf88f": 6964,
      "\ue0de\ue4a9\ue407\uf88f": 6965,
      "\ue4c3\ue431": 6966,
      "\ue4a2\ue424": 6967,
      "\ue0de\ue4a7\ue407": 6968,
      "\uf646\ue002": 6969,
      "\ue4bf\ue432": 6970,
      "\ue4b9\ue416\uf88f": 6971,
      "\ue4b7\ue431": 6972,
      "\ue4cc\ue410": 6973,
      "\ue4a9\ue41f": 6974,
      "\ue4bf\ue41b": 6975,
      "\ue4c2\ue407": 6976,
      "\ue0de\ue4b3\ue407": 6977,
      "\ue4af\ue418": 6978,
      "\uf646\ue006": 6979,
      "\ue453\uf872": 6980,
      "\ue420\uf8eb": 6981,
      "\ue4d5\ue3e8": 6982,
      "\ue4cb\ue42f": 6983,
      "\ue49f\ue41f\uf88f": 6984,
      "\uf646\ue00e": 6985,
      "\ue499\ue421": 6986,
      "\ue4ba\ue42f": 6987,
      "\ue4c2\ue43c": 6988,
      "\ue4c5\ue415": 6989,
      "\ue4cc\ue418": 6990,
      "\uf646\ue14d\ue4a2\ue407": 6991,
      "\ue22b\ue4b6\ue407": 6992,
      "\ue3ee\uf8ba": 6993,
      "\ue4c6\ue430": 6994,
      "\uf646\ue070": 6995,
      "\ue4ac\ue418": 6996,
      "\ue4b6\ue419": 6997,
      "\uf646\ue042\ue4a9\ue407": 6998,
      "\ue4c5\ue42f": 6999,
      "\ue4c0\ue431": 7000,
      "\ue4a1\ue407\uf8eb": 7001,
      "\uf646\ue04f": 7002,
      "\ue43f\uf872": 7003,
      "\ue4c3\ue417": 7004,
      "\uf646\ue14d\ue4a7\ue407": 7005,
      "\ue4d0\ue42f": 7006,
      "\ue4c1\ue416\uf88f": 7007,
      "\ue4c4\ue435": 7008,
      "\ue4c1\ue432": 7009,
      "\ue4c8\ue407\uf8db": 7010,
      "\ue4bb\ue43c": 7011,
      "\ue4af\ue41a": 7012,
      "\ue4bf\ue416\uf88f": 7013,
      "\ue4ae\ue419": 7014,
      "\ue4b5\ue410": 7015,
      "\ue4ac\ue41a": 7016,
      "\ue44b\uf877": 7017,
      "\uf646\ue003": 7018,
      "\ue4b8\ue410": 7019,
      "\ue0de\ue4a2\ue407\uf88f": 7020,
      "\ue4c5\ue410": 7021,
      "\ue4d6\ue407": 7022,
      "\ue4c3\ue434": 7023,
      "\uf646\ue06f\ue4bf\ue407": 7024,
      "\ue4bd\ue41b": 7025,
      "\ue4c6\ue43c": 7026,
      "\ue4c2\ue419": 7027,
      "\ue49e\ue421": 7028,
      "\ue4b9\ue430": 7029,
      "\ue4ce\ue40e": 7030,
      "\uf646\ue008": 7031,
      "\ue4a4\ue424": 7032,
      "\ue4ad\ue416": 7033,
      "\ue4c1\ue41b": 7034,
      "\ue4a9\ue421": 7035,
      "\ue4c9\ue434": 7036,
      "\ue4b3\ue407\uf872": 7037,
      "\ue4c0\ue417": 7038,
      "\ue4b7\ue43c": 7039,
      "\ue4cc\ue40e": 7040,
      "\uf646\ue06f\ue499\ue407": 7041,
      "\ue4a1\ue407\uf888": 7042,
      "\ue49d\ue41e": 7043,
      "\ue4a1\ue407\uf87d": 7044,
      "\ue1bc\ue4b6\ue407": 7045,
      "\ue4ae\ue41c": 7046,
      "\ue4be\ue431": 7047,
      "\ue4ac\ue41e": 7048,
      "\ue4ba\ue417": 7049,
      "\ue49c\ue421": 7050,
      "\ue4b5\ue41c": 7051,
      "\ue4ab\ue407\uf8c9": 7052,
      "\uf646\ue00d": 7053,
      "\ue4ae\ue418": 7054,
      "\ue4bf\ue435": 7055,
      "\ue4ce\ue410": 7056,
      "\ue4b8\ue419": 7057,
      "\ue438\uf88f": 7058,
      "\ue4cc\ue44b": 7059,
      "\ue423\uf88f": 7060,
      "\uf646\ue00c": 7061,
      "\ue4d7\ue42f": 7062,
      "\ue4ca\ue434": 7063,
      "\ue4ac\ue415": 7064,
      "\uf646\ue22b\ue4a7\ue407": 7065,
      "\ue45b\uf88f": 7066,
      "\ue4d6\ue3e8": 7067,
      "\ue49f\ue407": 7068,
      "\ue4c2\ue430": 7069,
      "\uf646\ue059": 7070,
      "\ue4a5\ue3e8": 7071,
      "\ue4b6\ue407\uf872": 7072,
      "\ue4bd\ue454": 7073,
      "\ue49d\ue41f\uf88f": 7074,
      "\uf646\ue010": 7075,
      "\uf646\ue22b\ue4c8\ue407": 7076,
      "\uf646\ue007": 7077,
      "\ue4ca\ue40e": 7078,
      "\ue4a4\ue407\uf8db": 7079,
      "\ue4af\ue415": 7080,
      "\ue4a1\ue41e": 7081,
      "\ue4d6\ue42f": 7082,
      "\ue4bd\ue432": 7083,
      "\uf646\ue011": 7084,
      "\uf646\ue019": 7085,
      "\ue4c1\ue435": 7086,
      "\uf646\ue01c": 7087,
      "\ue4a1\ue407\uf8e6": 7088,
      "\ue4a4\ue407\uf87d": 7089,
      "\uf646\ue06f\ue4a9\ue407\uf8d0": 7090,
      "\ue4b4\ue410": 7091,
      "\ue4a2\ue41f\uf88f": 7092,
      "\uf646\ue06f\ue4b8\ue407": 7093,
      "\ue49f\ue425": 7094,
      "\uf646\ue021\ue4a2\ue407": 7095,
      "\ue4c8\ue410": 7096,
      "\ue4aa\ue419": 7097,
      "\ue4c4\ue407": 7098,
      "\ue037\ue4a9\ue407": 7099,
      "\ue4b6\ue41a": 7100,
      "\uf646\ue020": 7101,
      "\ue0de\ue4ab\ue407": 7102,
      "\ue4a2\ue425": 7103,
      "\ue4c6\ue44b": 7104,
      "\uf646\ue025": 7105,
      "\ue4ae\ue41a": 7106,
      "\uf646\ue29a\ue4c8\ue407": 7107,
      "\ue0de\ue4c8\ue407": 7108,
      "\uf646\ue009": 7109,
      "\ue4c4\ue454": 7110,
      "\ue4bf\ue442": 7111,
      "\ue4ce\ue416": 7112,
      "\ue426\uf88f": 7113,
      "\ue497\ue41f": 7114,
      "\ue4be\ue419": 7115,
      "\ue4d1\ue40e": 7116,
      "\ue0de\ue4ad\ue407": 7117,
      "\uf646\ue015": 7118,
      "\ue4bb\ue430": 7119,
      "\uf646\ue309\ue4c8\ue407": 7120,
      "\uf646\ue05e": 7121,
      "\ue4a5\ue407\uf872": 7122,
      "\ue4c4\ue432": 7123,
      "\ue06f\ue4a9\ue407\uf88f": 7124,
      "\ue4c3\ue43c": 7125,
      "\ue4c0\ue43c": 7126,
      "\uf646\ue014": 7127,
      "\ue4d9\ue3e8": 7128,
      "\ue14d\ue4c6\ue407": 7129,
      "\ue426\uf872": 7130,
      "\ue06f\ue4c0\ue407": 7131,
      "\ue4c9\ue431": 7132,
      "\ue4ba\ue431": 7133,
      "\ue4af\ue424": 7134,
      "\ue4a2\ue407\uf88e": 7135,
      "\ue447\uf88f": 7136,
      "\ue436\uf88f": 7137,
      "\ue4b6\ue41c": 7138,
      "\ue4a3\ue407\uf872": 7139,
      "\ue4bf\ue416\uf872": 7140,
      "\ue4b9\ue432": 7141,
      "\ue4aa\ue424": 7142,
      "\ue45e\uf88f": 7143,
      "\ue4c6\ue432": 7144,
      "\ue4c6\ue41c": 7145,
      "\uf646\ue013": 7146,
      "\ue4b2\ue410": 7147,
      "\ue4a5\ue41e": 7148,
      "\ue4c1\ue442": 7149,
      "\ue06f\ue4c1\ue407": 7150,
      "\ue447\uf8db": 7151,
      "\ue4c3\ue41a": 7152,
      "\ue4cb\ue418": 7153,
      "\ue4bb\ue434": 7154,
      "\uf646\ue043": 7155,
      "\ue4a4\ue41f\uf88f": 7156,
      "\ue4a9\ue407\uf8c5": 7157,
      "\ue4c0\ue434": 7158,
      "\ue4bd\ue435": 7159,
      "\uf646\ue054": 7160,
      "\uf646\ue29a\ue4ab\ue407": 7161,
      "\ue4ca\ue415": 7162,
      "\ue4bd\ue416\uf88f": 7163,
      "\ue14d\ue4c8\ue407": 7164,
      "\ue4ca\ue431": 7165,
      "\uf646\ue01b": 7166,
      "\ue4c6\ue435": 7167,
      "\ue4aa\ue41c": 7168,
      "\ue4b7\ue430": 7169,
      "\ue4c6\ue40e": 7170,
      "\ue4c6\ue419": 7171,
      "\ue4c4\ue442": 7172,
      "\ue4bb\ue416\uf88f": 7173,
      "\ue4ac\ue424": 7174,
      "\ue447\uf872": 7175,
      "\ue4cd\ue42f": 7176,
      "\uf646\ue02a": 7177,
      "\ue449\uf88f": 7178,
      "\uf646\ue14d\ue4ad\ue407": 7179,
      "\ue4b5\ue42f": 7180,
      "\ue4da\ue407": 7181,
      "\uf646\ue1bc\ue4a4\ue407": 7182,
      "\ue4c4\ue41c": 7183,
      "\uf646\ue033": 7184,
      "\ue4b9\ue434": 7185,
      "\uf646\ue22b\ue4ad\ue407": 7186,
      "\ue4a8\ue424": 7187,
      "\ue4be\ue43c": 7188,
      "\ue4ce\ue44b": 7189,
      "\ue1bc\ue4c8\ue407": 7190,
      "\ue4ca\ue417": 7191,
      "\ue4b2\ue407": 7192,
      "\uf646\ue01f": 7193,
      "\ue4ba\ue43c": 7194,
      "\uf646\ue022": 7195,
      "\uf646\ue040": 7196,
      "\ue4ba\ue41c": 7197,
      "\uf646\ue016\ue4ab\ue407": 7198,
      "\ue4ae\ue415": 7199,
      "\ue4d9\ue42f": 7200,
      "\ue41b\uf872": 7201,
      "\ue453\uf88f": 7202,
      "\uf646\ue00b\ue4a2\ue407": 7203,
      "\ue4c2\ue432": 7204,
      "\uf646\ue03f": 7205,
      "\uf646\ue29a\ue4a4\ue407": 7206,
      "\ue309\ue4b6\ue407": 7207,
      "\uf646\ue01d": 7208,
      "\uf646\ue378\ue4ab\ue407": 7209,
      "\uf646\ue378\ue4c8\ue407": 7210,
      "\ue4aa\ue410": 7211,
      "\ue4a0\ue41e": 7212,
      "\ue45b\uf872": 7213,
      "\uf646\ue309\ue4c6\ue407": 7214,
      "\ue4c9\ue417": 7215,
      "\ue4c0\ue419": 7216,
      "\uf646\ue021\ue4a9\ue407\uf872": 7217,
      "\ue44d\uf88f": 7218,
      "\uf646\ue061": 7219,
      "\ue4c5\ue434": 7220,
      "\ue436\uf872": 7221,
      "\uf646\ue06f\ue4a4\ue407\uf88f": 7222,
      "\uf646\ue02e": 7223,
      "\uf646\ue030": 7224,
      "\uf646\ue024": 7225,
      "\ue4cc\ue434": 7226,
      "\ue4a8\ue416": 7227,
      "\uf646\ue00f": 7228,
      "\ue14d\ue4a4\ue407": 7229,
      "\ue4ca\ue44b": 7230,
      "\ue49d\ue425": 7231,
      "\ue49f\ue424": 7232,
      "\uf646\ue06d": 7233,
      "\ue4b2\ue42f": 7234,
      "\uf646\ue02d": 7235,
      "\ue4a0\ue424": 7236,
      "\ue4a9\ue407\uf8eb": 7237,
      "\uf646\ue036": 7238,
      "\ue4b7\ue416\uf88f": 7239,
      "\ue4be\ue41a": 7240,
      "\ue4b6\ue410": 7241,
      "\ue4c6\ue42c": 7242,
      "\ue4a7\ue419": 7243,
      "\ue4a9\ue407\uf8c9": 7244,
      "\ue3ef\uf872": 7245,
      "\uf646\ue016\ue4b6\ue407": 7246,
      "\ue4b8\ue417": 7247,
      "\ue4b4\ue42f": 7248,
      "\uf646\ue021\ue4ab\ue407": 7249,
      "\ue4c6\ue442": 7250,
      "\ue454\uf8db": 7251,
      "\ue4af\ue410": 7252,
      "\ue4a2\ue407\uf8e6": 7253,
      "\uf646\ue056": 7254,
      "\ue4c2\ue435": 7255,
      "\ue467\uf872": 7256,
      "\uf646\ue1bc\ue4a1\ue407": 7257,
      "\uf646\ue29a\ue4ad\ue407": 7258,
      "\uf646\ue05b": 7259,
      "\uf646\ue057": 7260,
      "\uf646\ue01a": 7261,
      "\ue4a9\ue416": 7262,
      "\ue43e\uf872": 7263,
      "\ue4c3\ue416\uf88f": 7264,
      "\ue4b0\ue419": 7265,
      "\uf646\ue22b\ue4a4\ue407": 7266,
      "\uf646\ue021\ue4ca": 7267,
      "\ue4be\ue434": 7268,
      "\uf646\ue041": 7269,
      "\uf646\ue012": 7270,
      "\uf646\ue028": 7271,
      "\ue4bf\ue407\uf88f": 7272,
      "\uf646\ue021\ue4c6\ue407": 7273,
      "\ue4c2\ue43f": 7274,
      "\ue4b5\ue41a": 7275,
      "\ue43d\uf88f": 7276,
      "\ue40c\uf88f": 7277,
      "\ue430\uf88f": 7278,
      "\uf646\ue052": 7279,
      "\ue4cc\ue40d": 7280,
      "\ue4aa\ue418": 7281,
      "\ue4b4\ue417": 7282,
      "\ue4c3\ue419": 7283,
      "\uf646\ue00b\ue4b6\ue407": 7284,
      "\ue4bb\ue432": 7285,
      "\uf646\ue018": 7286,
      "\uf646\ue021\ue4c6": 7287,
      "\ue4cc\ue431": 7288,
      "\ue45e\uf872": 7289,
      "\uf646\ue29a\ue4a7\ue407": 7290,
      "\ue4a9\ue407\uf87d": 7291,
      "\ue4ce\ue40d": 7292,
      "\uf646\ue1bc\ue4ad\ue407": 7293,
      "\uf646\ue064": 7294,
      "\ue4a4\ue425": 7295,
      "\uf646\ue045": 7296,
      "\ue40e\uf872": 7297,
      "\uf646\ue049": 7298,
      "\uf646\ue016\ue4ca": 7299,
      "\ue4a4\ue407\uf8eb": 7300,
      "\ue4cc\ue415": 7301,
      "\uf646\ue03a": 7302,
      "\ue4b8\ue41a": 7303,
      "\uf646\ue01e": 7304,
      "\uf646\ue29a\ue4a2\ue407": 7305,
      "\ue4c1\ue3e8\uf88f": 7306,
      "\ue454\uf8c9": 7307,
      "\uf646\ue06f\ue4a9\ue407\uf8db": 7308,
      "\uf646\ue060": 7309,
      "\ue4b9\ue416\uf872": 7310,
      "\uf646\ue03e": 7311,
      "\ue4c9\ue44b": 7312,
      "\uf646\ue3e7\ue4ab\ue407": 7313,
      "\uf646\ue14d\ue4ab\ue407": 7314,
      "\ue4c6\ue41b": 7315,
      "\ue4bd\ue43f": 7316,
      "\ue4bd\ue442": 7317,
      "\uf646\ue016\ue4a2\ue407\uf88f": 7318,
      "\uf646\ue04d\ue4a9\ue407": 7319,
      "\uf646\ue035": 7320,
      "\uf646\ue1bc\ue4a7\ue407": 7321,
      "\ue02c\ue4a9\ue407": 7322,
      "\ue4cb\ue416": 7323,
      "\ue4ad\ue407\uf8eb": 7324,
      "\ue4b8\ue407\uf88f": 7325,
      "\uf646\ue047": 7326,
      "\ue4cc\ue430": 7327,
      "\uf646\ue06f\ue4b5\ue407": 7328,
      "\uf646\ue053": 7329,
      "\uf646\ue309\ue4ab\ue407": 7330,
      "\uf646\ue04b": 7331,
      "\ue4b8\ue41c": 7332,
      "\ue4c3\ue430": 7333,
      "\ue4c3\ue41c": 7334,
      "\uf646\ue1bc\ue4a2\ue407": 7335,
      "\ue4d4\ue40e": 7336,
      "\ue440\uf88f": 7337,
      "\ue4d3\ue42f": 7338,
      "\ue4aa\ue41a": 7339,
      "\ue4c4\ue43f": 7340,
      "\uf646\ue29a\ue4a1\ue407": 7341,
      "\uf646\ue023": 7342,
      "\uf646\ue05c": 7343,
      "\ue4ca\ue430": 7344,
      "\ue4b9\ue41b": 7345,
      "\uf646\ue03d": 7346,
      "\ue4b8\ue42f": 7347,
      "\ue4bf\ue3e8\uf88f": 7348,
      "\uf646\ue14d\ue4c0": 7349,
      "\uf646\ue016\ue4a2\ue407": 7350,
      "\ue4c4\ue44b": 7351,
      "\uf646\ue05d": 7352,
      "\ue49d\ue424": 7353,
      "\uf646\ue06f\ue4d4\ue407": 7354,
      "\ue4a4\ue407\uf888": 7355,
      "\ue427\uf88f": 7356,
      "\ue49f\ue3e8": 7357,
      "\ue4c2\ue442": 7358,
      "\ue4ba\ue41a": 7359,
      "\uf646\ue1bc\ue4b3\ue407": 7360,
      "\ue4a9\ue41e": 7361,
      "\ue4c2\ue41b": 7362,
      "\uf646\ue378\ue4a2\ue407": 7363,
      "\ue4b7\ue432": 7364,
      "\ue4c3\ue432": 7365,
      "\ue4a3\ue41e": 7366,
      "\ue4b5\ue417": 7367,
      "\uf646\ue06f\ue4c8\ue407\uf8ca": 7368,
      "\ue4c2\ue454": 7369,
      "\ue4c8\ue434": 7370,
      "\uf646\ue378\ue4c6\ue407": 7371,
      "\ue4c6\ue43e": 7372,
      "\uf646\ue034": 7373,
      "\uf646\ue03c": 7374,
      "\ue40c\uf872": 7375,
      "\ue452\uf872": 7376,
      "\uf646\ue032": 7377,
      "\ue4bd\ue3e8\uf88f": 7378,
      "\ue4c5\ue417": 7379,
      "\uf646\ue0de\ue4d5\ue407": 7380,
      "\ue4c6\ue43f": 7381,
      "\ue4c1\ue454": 7382,
      "\ue14d\ue4a2\ue407": 7383,
      "\ue4c1\ue416\uf872": 7384,
      "\ue4c9\ue430": 7385,
      "\ue4ca\ue43c": 7386,
      "\uf646\ue048": 7387,
      "\uf646\ue027": 7388,
      "\uf646\ue02f": 7389,
      "\ue4c6\ue3fe": 7390,
      "\uf646\ue06f\ue4a9\ue407\uf8c9": 7391,
      "\ue4c3\ue40e": 7392,
      "\ue425\uf876": 7393,
      "\ue4c2\ue41a": 7394,
      "\uf646\ue021\ue4c8\ue407": 7395,
      "\ue06f\ue4bb\ue407": 7396,
      "\ue22b\ue4a1\ue407": 7397,
      "\ue4c4\ue3e8\uf88f": 7398,
      "\uf646\ue06f\ue4ac\ue407": 7399,
      "\ue4c9\ue43c": 7400,
      "\ue4b6\ue42f": 7401,
      "\ue4a7\ue407\uf8eb": 7402,
      "\ue45e\uf8db": 7403,
      "\ue4c8\ue431": 7404,
      "\ue4b8\ue3ee\uf8d0": 7405,
      "\ue4c1\ue45c": 7406,
      "\ue4aa\ue415": 7407,
      "\ue457\uf88f": 7408,
      "\ue4b3\ue3ee\uf8d0": 7409,
      "\ue4b0\ue407\uf88f": 7410,
      "\ue4c4\ue43e": 7411,
      "\ue378\ue4b6\ue407": 7412,
      "\uf646\ue051": 7413,
      "\ue29a\ue4c8\ue407": 7414,
      "\uf646\ue04c": 7415,
      "\ue4b3\ue41c": 7416,
      "\ue4d5\ue42f": 7417,
      "\uf646\ue22b\ue4a2\ue407\uf88f": 7418,
      "\ue06f\ue499\ue407": 7419,
      "\ue4c8\ue415": 7420,
      "\ue4ce\ue418": 7421,
      "\ue4a3\ue3e8": 7422,
      "\uf646\ue3e7\ue4a2\ue407": 7423,
      "\uf646\ue29a\ue4c6\ue407": 7424,
      "\ue4b4\ue407": 7425,
      "\uf646\ue03b": 7426,
      "\uf646\ue031": 7427,
      "\ue4c1\ue43f": 7428,
      "\ue06f\ue4bf\ue407": 7429,
      "\uf646\ue039": 7430,
      "\uf646\ue04e": 7431,
      "\ue4c5\ue431": 7432,
      "\ue4a1\ue3e8": 7433,
      "\ue4c6\ue45a": 7434,
      "\uf646\ue0de\ue4a4\ue407\uf88f": 7435,
      "\uf646\ue02b": 7436,
      "\uf646\ue066": 7437,
      "\ue042\ue4a9\ue407": 7438,
      "\ue4b7\ue416\uf872": 7439,
      "\ue021\ue4b6\ue407": 7440,
      "\ue4d5\ue407\uf8c5": 7441,
      "\ue4c9\ue40e": 7442,
      "\ue4b8\ue431": 7443,
      "\uf646\ue05a": 7444,
      "\ue4ac\ue410": 7445,
      "\uf646\ue00b\ue4ab\ue407": 7446,
      "\uf646\ue021\ue4ad\ue407": 7447,
      "\ue4be\ue41c": 7448,
      "\ue4b0\ue41c": 7449,
      "\ue4bf\ue443": 7450,
      "\ue4b3\ue419": 7451,
      "\ue4a5\ue424": 7452,
      "\ue4bf\ue454": 7453,
      "\ue4ca\ue43e": 7454,
      "\ue4d1\ue44b": 7455,
      "\ue447\uf8e7": 7456,
      "\ue4c6\ue454": 7457,
      "\ue4c9\ue41a": 7458,
      "\ue435\uf872": 7459,
      "\ue4cf\ue40e": 7460,
      "\ue4b3\ue415": 7461,
      "\uf646\ue06f\ue4aa\ue407": 7462,
      "\uf646\ue029": 7463,
      "\ue016\ue4ab\ue407": 7464,
      "\ue4ab\ue416": 7465,
      "\ue4cc\ue43e": 7466,
      "\ue45a\uf8db": 7467,
      "\uf646\ue06f\ue4a9\ue407\uf8d5": 7468,
      "\ue06f\ue4b8\ue407": 7469,
      "\ue4c6\ue40d": 7470,
      "\ue3e7\ue4b6\ue407": 7471,
      "\ue4d5\ue407\uf872": 7472,
      "\uf646\ue06b": 7473,
      "\ue4c2\ue41c": 7474,
      "\uf646\ue026": 7475,
      "\ue462\uf88f": 7476,
      "\ue4c8\ue417": 7477,
      "\ue4bb\ue41b": 7478,
      "\ue447\uf8af": 7479,
      "\uf646\ue06f\ue4d3\ue407": 7480,
      "\ue4b4\ue416\uf88f": 7481,
      "\ue49f\ue420": 7482,
      "\ue4b0\ue418": 7483,
      "\uf646\ue05f": 7484,
      "\uf646\ue378\ue4b3\ue407": 7485,
      "\ue14d\ue4a7\ue407": 7486,
      "\ue4a7\ue424": 7487,
      "\ue4bf\ue45c": 7488,
      "\ue4c4\ue40e": 7489,
      "\ue14d\ue4b3\ue407": 7490,
      "\ue4cc\ue455": 7491,
      "\uf646\ue3e7\ue4c8\ue407": 7492,
      "\uf646\ue06f\ue4a9\ue407\uf8d6": 7493,
      "\ue4c4\ue3e8\uf872": 7494,
      "\uf646\ue055": 7495,
      "\ue4a7\ue41c": 7496,
      "\ue4ca\ue41b": 7497,
      "\uf646\ue309\ue4a2\ue407": 7498,
      "\ue4a0\ue3e8": 7499,
      "\ue4c1\ue3e8\uf872": 7500,
      "\ue4a4\ue420": 7501,
      "\ue4cc\ue432": 7502,
      "\ue425\uf87d": 7503,
      "\ue4c6\ue407\uf8db": 7504,
      "\ue49a\ue41f\uf88f": 7505,
      "\uf646\ue29a\ue4a2\ue407\uf88f": 7506,
      "\uf646\ue063\ue4a9\ue407": 7507,
      "\uf646\ue021\ue4a4\ue407": 7508,
      "\uf646\ue309\ue4bd": 7509,
      "\ue06f\ue4a9\ue407\uf8db": 7510,
      "\uf646\ue06f\ue4a9\ue407\uf8e6": 7511,
      "\ue4bf\ue43f": 7512,
      "\uf646\ue046": 7513,
      "\ue22b\ue4c8\ue407": 7514,
      "\ue49f\ue41f\uf872": 7515,
      "\ue4b7\ue41b": 7516,
      "\uf646\ue22b\ue4ab\ue407": 7517,
      "\uf646\ue068": 7518,
      "\ue4ca\ue3fe": 7519,
      "\ue4c9\ue432": 7520,
      "\ue4be\ue430": 7521,
      "\ue4b2\ue417": 7522,
      "\ue42c\uf872": 7523,
      "\uf646\ue06f\ue4c5\ue407": 7524,
      "\ue4c4\ue438": 7525,
      "\uf646\ue069": 7526,
      "\ue4bb\ue407\uf872": 7527,
      "\ue4c9\ue419": 7528,
      "\ue4cb\ue410": 7529,
      "\ue427\uf872": 7530,
      "\ue4a2\ue407\uf8c9": 7531,
      "\uf646\ue29a\ue499\ue407": 7532,
      "\ue4af\ue42f": 7533,
      "\ue4a2\ue420": 7534,
      "\uf646\ue050": 7535,
      "\ue4c4\ue3fe": 7536,
      "\ue4b8\ue43c": 7537,
      "\uf646\ue29a\ue4b3\ue407": 7538,
      "\uf646\ue0de\ue4c0\ue407": 7539,
      "\ue4cc\ue3fe": 7540,
      "\uf646\ue22b\ue4c6\ue407": 7541,
      "\uf646\ue06a": 7542,
      "\ue4af\ue41f": 7543,
      "\ue4b9\ue3e8\uf88f": 7544,
      "\ue4ae\ue41f": 7545,
      "\ue40d\uf88f": 7546,
      "\ue06f\ue4b0\ue407": 7547,
      "\ue4bd\ue416\uf872": 7548,
      "\uf646\ue044": 7549,
      "\ue4bf\ue3e8\uf872": 7550,
      "\uf646\ue016\ue4a9\ue407\uf872": 7551,
      "\ue4cc\ue417": 7552,
      "\ue4c6\ue438": 7553,
      "\ue4c5\ue43c": 7554,
      "\ue4c0\ue430": 7555,
      "\ue4cc\ue407": 7556,
      "\ue49a\ue424": 7557,
      "\ue4ad\ue41f": 7558,
      "\ue4c6\ue407\uf8c5": 7559,
      "\ue467\uf88f": 7560,
      "\uf646\ue06c": 7561,
      "\uf646\ue06f\ue4bd\ue407": 7562,
      "\ue309\ue4c8\ue407": 7563,
      "\ue4ab\ue421": 7564,
      "\uf646\ue021\ue4a2\ue407\uf88f": 7565,
      "\ue498\ue41f": 7566,
      "\uf646\ue0de\ue4c1\ue407": 7567,
      "\uf646\ue016\ue4cf": 7568,
      "\uf646\ue06f\ue4a9\ue407\uf8d2": 7569,
      "\ue49d\ue3e8": 7570,
      "\ue4cc\ue43c": 7571,
      "\uf646\ue062": 7572,
      "\uf646\ue309\ue4a1\ue407": 7573,
      "\ue4c3\ue435": 7574,
      "\uf646\ue00b\ue4a4\ue407": 7575,
      "\ue4a1\ue424": 7576,
      "\ue4c6\ue3e8\uf88f": 7577,
      "\ue4cc\ue438": 7578,
      "\uf646\ue14d\ue4d5\ue407": 7579,
      "\ue4bd\ue443": 7580,
      "\ue4d8\ue3e8": 7581,
      "\ue4c0\ue407\uf872": 7582,
      "\ue4b9\ue435": 7583,
      "\ue4ad\ue41c": 7584,
      "\ue4cc\ue454": 7585,
      "\ue4ce\ue415": 7586,
      "\ue4a1\ue41f\uf88f": 7587,
      "\ue4c1\ue443": 7588,
      "\ue4bd\ue45c": 7589,
      "\ue4c4\ue45a": 7590,
      "\ue4ca\ue438": 7591,
      "\ue021\ue4a9\ue407\uf872": 7592,
      "\ue452\uf8c9": 7593,
      "\ue4b7\ue434": 7594,
      "\ue4c1\ue44b": 7595,
      "\uf646\ue058\ue4a9\ue407": 7596,
      "\ue499\ue41f\uf88f": 7597,
      "\ue00b\ue4a2\ue407": 7598,
      "\ue4c3\ue442": 7599,
      "\ue4ca\ue454": 7600,
      "\ue4b9\ue454": 7601,
      "\ue452\uf88f": 7602,
      "\ue439\uf88f": 7603,
      "\ue06f\ue4a9\ue407\uf8d0": 7604,
      "\ue4c9\ue43e": 7605,
      "\ue4bd\ue3e8\uf872": 7606,
      "\uf646\ue309\ue4bf": 7607,
      "\uf646\ue06f\ue4a9\ue407\uf8d7": 7608,
      "\uf646\ue06f\ue4a9\ue407\uf8df": 7609,
      "\ue4b6\ue417": 7610,
      "\uf646\ue3e7\ue4a9\ue407\uf88f": 7611,
      "\ue4ce\ue44d": 7612,
      "\uf646\ue016\ue4a7\ue407": 7613,
      "\uf646\ue14d\ue4a2\ue407\uf88f": 7614,
      "\ue4be\ue416\uf88f": 7615,
      "\ue14d\ue4c0": 7616,
      "\ue4bb\ue416\uf872": 7617,
      "\ue4c3\ue41b": 7618,
      "\ue3e7\ue4ab\ue407": 7619,
      "\ue021\ue4a2\ue407": 7620,
      "\ue4bb\ue435": 7621,
      "\ue4db\ue42f": 7622,
      "\ue22b\ue4b3\ue407": 7623,
      "\ue42d\uf872": 7624,
      "\ue4cb\ue44b": 7625,
      "\uf646\ue06f\ue4a9\ue407\uf8ba": 7626,
      "\uf646\ue06f\ue4a7\ue407\uf88f": 7627,
      "\uf646\ue06f\ue4a9\ue407\uf8d1": 7628,
      "\ue4ce\ue430": 7629,
      "\uf646\ue021\ue4b3\ue407": 7630,
      "\ue4cf\ue410": 7631,
      "\uf646\ue3e7\ue4a2\ue407\uf88f": 7632,
      "\ue49d\ue420": 7633,
      "\ue4db\ue3e8": 7634,
      "\ue4d1\ue410": 7635,
      "\uf646\ue00b\ue4b3\ue407": 7636,
      "\uf646\ue378\ue4ad\ue407": 7637,
      "\uf646\ue0de\ue4a1\ue407\uf88f": 7638,
      "\uf646\ue378\ue4bd": 7639,
      "\uf646\ue021\ue4c1": 7640,
      "\ue4a1\ue425": 7641,
      "\ue4cc\ue41b": 7642,
      "\ue4c0\ue432": 7643,
      "\uf646\ue309\ue4b3\ue407": 7644,
      "\uf646\ue06f\ue4a9\ue407\uf8c5": 7645,
      "\ue449\uf872": 7646,
      "\ue4bf\ue447": 7647,
      "\ue4ce\ue434": 7648,
      "\ue4d4\ue44b": 7649,
      "\ue4cc\ue44d": 7650,
      "\ue4cf\ue44b": 7651,
      "\ue4ca\ue432": 7652,
      "\uf646\ue02c\ue4a2\ue407": 7653,
      "\ue4b9\ue45c": 7654,
      "\ue4ba\ue430": 7655,
      "\ue4c6\ue407\uf8af": 7656,
      "\uf646\ue016\ue4a9\ue407\uf88f": 7657,
      "\ue4ce\ue431": 7658,
      "\uf646\ue06f\ue4a9\ue407\uf8c7": 7659,
      "\ue4be\ue432": 7660,
      "\uf646\ue06f\ue4a9\ue407\uf8ca": 7661,
      "\ue4cb\ue434": 7662,
      "\uf646\ue021\ue4c9": 7663,
      "\ue29a\ue4a2\ue407": 7664,
      "\uf646\ue309\ue4a7\ue407": 7665,
      "\uf646\ue06f\ue4b9\ue407": 7666,
      "\ue4a7\ue418": 7667,
      "\ue4ca\ue40d": 7668,
      "\ue4b0\ue41a": 7669,
      "\ue4ab\ue41f": 7670,
      "\ue4a2\ue41f\uf872": 7671,
      "\ue49d\ue407": 7672,
      "\uf646\ue021\ue4a1\ue407": 7673,
      "\ue4c0\ue41a": 7674,
      "\ue06f\ue4a4\ue407\uf88f": 7675,
      "\ue4d0\ue44b": 7676,
      "\uf646\ue22b\ue4a2\ue407": 7677,
      "\ue3e9\uf872": 7678,
      "\ue4c0\ue442": 7679,
      "\ue4bf\ue44b": 7680,
      "\uf646\ue22b\ue4c1": 7681,
      "\ue4c2\ue416\uf88f": 7682,
      "\ue4cc\ue41a": 7683,
      "\ue4b5\ue43c": 7684,
      "\uf646\ue06f\ue4a9\ue407\uf8c6": 7685,
      "\ue49e\ue407": 7686,
      "\ue4a8\ue407\uf88f": 7687,
      "\ue4d7\ue407": 7688,
      "\ue29a\ue4ad\ue407": 7689,
      "\ue4c4\ue416\uf88f": 7690,
      "\uf646\ue021\ue4bd": 7691,
      "\uf646\ue06f\ue4a9\ue407\uf8e0": 7692,
      "\uf646\ue067": 7693,
      "\ue29a\ue4a4\ue407": 7694,
      "\uf646\ue021\ue4ce": 7695,
      "\uf646\ue073": 7696,
      "\ue4d0\ue40e": 7697,
      "\ue423\uf872": 7698,
      "\ue4ba\ue434": 7699,
      "\uf646\ue1bc\ue4c6\ue407": 7700,
      "\ue4c0\ue41c": 7701,
      "\uf646\ue378\ue4c4": 7702,
      "\ue4c8\ue43c": 7703,
      "\ue4b0\ue415": 7704,
      "\ue4b4\ue43c": 7705,
      "\ue4a0\ue425": 7706,
      "\ue4cb\ue415": 7707,
      "\ue4d1\ue40d": 7708,
      "\uf646\ue083": 7709,
      "\ue04d\ue4a9\ue407": 7710,
      "\ue4b0\ue407\uf872": 7711,
      "\ue4ac\ue407\uf88f": 7712,
      "\ue378\ue4c8\ue407": 7713,
      "\ue4ca\ue41a": 7714,
      "\ue4ca\ue44d": 7715,
      "\uf646\ue021\ue4c4": 7716,
      "\ue4a2\ue407\uf88d": 7717,
      "\uf646\ue016\ue4a4\ue407": 7718,
      "\ue4b2\ue41f": 7719,
      "\uf646\ue378\ue4a7\ue407": 7720,
      "\ue4b5\ue431": 7721,
      "\ue29a\ue4ab\ue407": 7722,
      "\ue4a7\ue415": 7723,
      "\ue4c9\ue3fe": 7724,
      "\ue14d\ue4ad\ue407": 7725,
      "\ue4d4\ue40d": 7726,
      "\ue4aa\ue42f": 7727,
      "\ue22b\ue4a7\ue407": 7728,
      "\ue016\ue4a2\ue407\uf88f": 7729,
      "\ue4c9\ue42c": 7730,
      "\ue1bc\ue4a4\ue407": 7731,
      "\uf646\ue021\ue4bf": 7732,
      "\uf646\ue29a\ue4a5\ue407": 7733,
      "\ue4ce\ue3fe": 7734,
      "\ue06f\ue4a9\ue407\uf8df": 7735,
      "\ue4c1\ue426": 7736,
      "\ue4ca\ue455": 7737,
      "\ue4a9\ue424": 7738,
      "\ue22b\ue4ad\ue407": 7739,
      "\uf646\ue09c": 7740,
      "\ue4c4\ue436": 7741,
      "\uf646\ue29a\ue4a9\ue407\uf8be": 7742,
      "\ue4a4\ue41f\uf872": 7743,
      "\ue4ab\ue41e": 7744,
      "\uf646\ue06e\ue4a9\ue407": 7745,
      "\ue4c9\ue41c": 7746,
      "\ue0de\ue4a4\ue407\uf88f": 7747,
      "\uf646\ue06f\ue4be\ue407": 7748,
      "\ue4ba\ue432": 7749,
      "\ue4bb\ue45c": 7750,
      "\ue06f\ue4a9\ue407\uf8c9": 7751,
      "\ue4a7\ue41a": 7752,
      "\uf646\ue021\ue4b7": 7753,
      "\ue445\uf88f": 7754,
      "\ue4d8\ue42f": 7755,
      "\ue1bc\ue4a1\ue407": 7756,
      "\ue4ad\ue419": 7757,
      "\uf646\ue085\ue4a9\ue407": 7758,
      "\ue4c1\ue447": 7759,
      "\ue4c1\ue407\uf872": 7760,
      "\ue409\uf88f": 7761,
      "\ue309\ue4ab\ue407": 7762,
      "\ue4c4\ue45c": 7763,
      "\uf646\ue29a\ue4a9\ue407\uf872": 7764,
      "\ue4ae\ue421": 7765,
      "\ue4c8\ue430": 7766,
      "\ue22b\ue4a4\ue407": 7767,
      "\ue4c1\ue43e": 7768,
      "\uf646\ue0de\ue4a9\ue407\uf8b2": 7769,
      "\uf646\ue378\ue4bf": 7770,
      "\uf646\ue0de\ue4a5\ue407": 7771,
      "\uf646\ue065": 7772,
      "\ue4ac\ue42f": 7773,
      "\ue4c6\ue407\uf8ba": 7774,
      "\ue4c9\ue41b": 7775,
      "\ue4c5\ue407\uf8b6": 7776,
      "\uf646\ue021\ue4a9\ue407\uf88f": 7777,
      "\uf646\ue0de\ue4bb\ue407": 7778,
      "\uf646\ue06f\ue4a9\ue407\uf8d4": 7779,
      "\uf646\ue378\ue4a1\ue407": 7780,
      "\ue4c1\ue45e": 7781,
      "\ue4a8\ue425": 7782,
      "\uf646\ue06f\ue4a9\ue407\uf8b2": 7783,
      "\ue49d\ue41f\uf872": 7784,
      "\ue0de\ue4a9\ue407\uf8b2": 7785,
      "\ue4cd\ue410": 7786,
      "\ue4b3\ue41a": 7787,
      "\ue4c0\ue41b": 7788,
      "\ue4c5\ue41a": 7789,
      "\ue4c4\ue416\uf872": 7790,
      "\uf646\ue309\ue4c6": 7791,
      "\ue4c2\ue43e": 7792,
      "\uf646\ue016\ue4bd": 7793,
      "\ue378\ue4ab\ue407": 7794,
      "\ue4a7\ue41f\uf88f": 7795,
      "\uf646\ue021\ue4a7\ue407": 7796,
      "\uf646\ue3e7\ue4a4\ue407": 7797,
      "\ue4c5\ue430": 7798,
      "\ue4c0\ue454": 7799,
      "\ue4d4\ue410": 7800,
      "\ue4b7\ue454": 7801,
      "\ue49f\ue421\uf88f": 7802,
      "\uf646\ue0de\ue4bf\ue407": 7803,
      "\uf646\ue29a\ue4c0\ue407": 7804,
      "\ue4ca\ue419": 7805,
      "\ue4d6\ue40e": 7806,
      "\uf646\ue06f\ue4a9\ue407\uf8cc": 7807,
      "\ue4d7\ue40e": 7808,
      "\uf646\ue06f\ue4a9\ue407\uf8be": 7809,
      "\ue49e\ue424": 7810,
      "\ue4ce\ue43e": 7811,
      "\ue4bf\ue43d": 7812,
      "\uf646\ue378\ue4a4\ue407": 7813,
      "\uf646\ue29a\ue4c4": 7814,
      "\ue4b9\ue3e8\uf872": 7815,
      "\ue4ca\ue43f": 7816,
      "\ue4be\ue43f": 7817,
      "\ue4d1\ue430": 7818,
      "\ue4c0\ue435": 7819,
      "\uf646\ue3e7\ue4ad\ue407": 7820,
      "\uf646\ue29a\ue4b9": 7821,
      "\ue4b2\ue416\uf88f": 7822,
      "\ue4c2\ue3e8\uf88f": 7823,
      "\uf646\ue0de\ue4a3\ue407": 7824,
      "\ue49a\ue41e": 7825,
      "\ue4cf\ue40d": 7826,
      "\ue4a8\ue410": 7827,
      "\ue4c3\ue454": 7828,
      "\uf646\ue22b\ue4bf": 7829,
      "\uf646\ue309\ue4a4\ue407": 7830,
      "\ue4c9\ue435": 7831,
      "\ue4c1\ue407\uf88f": 7832,
      "\uf646\ue00b\ue4c8\ue407": 7833,
      "\ue4bb\ue407\uf88f": 7834,
      "\uf646\ue3e7\ue4a7\ue407": 7835,
      "\ue4c9\ue454": 7836,
      "\ue4c6\ue3e8\uf872": 7837,
      "\uf646\ue0de\ue4a9\ue407\uf8d5": 7838,
      "\ue4c5\ue435": 7839,
      "\ue4a1\ue407\uf8d0": 7840,
      "\ue14d\ue4ab\ue407": 7841,
      "\uf646\ue000": 7842,
      "\ue4d1\ue416": 7843,
      "\ue4c3\ue43f": 7844,
      "\ue4af\ue421": 7845,
      "\ue378\ue4a2\ue407": 7846,
      "\uf646\ue309\ue4ad\ue407": 7847,
      "\ue427\uf8db": 7848,
      "\ue4ca\ue435": 7849,
      "\ue4a4\ue42f": 7850,
      "\ue4c4\ue455": 7851,
      "\ue06f\ue4a9\ue407\uf8d6": 7852,
      "\ue06f\ue4a9\ue407\uf8d5": 7853,
      "\uf646\ue016\ue4c2": 7854,
      "\uf646\ue06f\ue4a9\ue407\uf8c8": 7855,
      "\ue4a5\ue407\uf8db": 7856,
      "\ue4a7\ue425": 7857,
      "\uf646\ue29a\ue4c5": 7858,
      "\ue4d4\ue430": 7859,
      "\ue4ce\ue455": 7860,
      "\ue016\ue4a2\ue407": 7861,
      "\uf646\ue06f\ue4a8\ue407": 7862,
      "\ue4c6\ue455": 7863,
      "\ue4c6\ue40c": 7864,
      "\uf646\ue042\ue4b6\ue407": 7865,
      "\ue4c3\ue416\uf872": 7866,
      "\ue4bf\ue407\uf872": 7867,
      "\ue4b4\ue416\uf872": 7868,
      "\ue4bb\ue442": 7869,
      "\ue4b4\ue431": 7870,
      "\ue309\ue4c6\ue407": 7871,
      "\ue1bc\ue4a2\ue407": 7872,
      "\uf646\ue021\ue4c2": 7873,
      "\ue408\uf872": 7874,
      "\ue4b3\ue418": 7875,
      "\uf646\ue06f\ue4a9\ue407\uf8c0": 7876,
      "\uf646\ue06f\ue4a9\ue407\uf8b7": 7877,
      "\ue4c1\ue436": 7878,
      "\ue4cc\ue445": 7879,
      "\uf646\ue07f": 7880,
      "\uf646\ue06f\ue4a9\ue407\uf8c3": 7881,
      "\ue4ac\ue425": 7882,
      "\uf646\ue06f\ue4a9\ue407\uf8c2": 7883,
      "\ue4ce\ue43c": 7884,
      "\ue4bd\ue426": 7885,
      "\ue4b9\ue45e": 7886,
      "\uf646\ue016\ue4c4": 7887,
      "\ue447\uf8e6": 7888,
      "\uf646\ue00b\ue4a7\ue407": 7889,
      "\ue4ca\ue442": 7890,
      "\ue1bc\ue4a7\ue407": 7891,
      "\uf646\ue06f\ue4a9\ue407\uf8ce": 7892,
      "\ue021\ue4a2\ue407\uf88f": 7893,
      "\ue4ce\ue41b": 7894,
      "\ue4c8\ue44b": 7895,
      "\ue4b2\ue41c\uf8eb": 7896,
      "\ue4b2\ue416\uf872": 7897,
      "\ue4c9\ue442": 7898,
      "\ue4b9\ue442": 7899,
      "\ue4b2\ue424": 7900,
      "\uf646\ue096": 7901,
      "\uf646\ue14d\ue4a5\ue407": 7902,
      "\ue49a\ue425": 7903,
      "\ue4b8\ue43f": 7904,
      "\ue4a8\ue41c": 7905,
      "\ue4c1\ue42c": 7906,
      "\uf646\ue016\ue4c8\ue407": 7907,
      "\ue458\uf872": 7908,
      "\uf646\ue077": 7909,
      "\ue4bb\ue3e8\uf88f": 7910,
      "\ue4aa\ue42e": 7911,
      "\ue4af\ue41e": 7912,
      "\ue29a\ue4bf": 7913,
      "\ue4a8\ue419": 7914,
      "\uf646\ue3e7\ue4c6\ue407": 7915,
      "\uf646\ue1bc\ue4ab\ue407": 7916,
      "\ue4c1\ue3fe": 7917,
      "\ue4cb\ue40e": 7918,
      "\ue4c4\ue43d": 7919,
      "\ue4c9\ue43f": 7920,
      "\ue4b9\ue443": 7921,
      "\uf646\ue016\ue4cc": 7922,
      "\ue22b\ue4ab\ue407": 7923,
      "\ue4da\ue407\uf8c5": 7924,
      "\uf646\ue06f\ue4a1\ue407\uf87d": 7925,
      "\ue4b3\ue410": 7926,
      "\ue413\uf88f": 7927,
      "\ue4c6\ue449": 7928,
      "\uf646\ue06f\ue4a9\ue407\uf8d9": 7929,
      "\ue4cf\ue430": 7930,
      "\uf646\ue06f\ue4a9\ue407\uf8d8": 7931,
      "\ue4a1\ue420": 7932,
      "\uf646\ue016\ue4b3\ue407": 7933,
      "\ue4ce\ue432": 7934,
      "\ue4d9\ue407": 7935,
      "\ue4c8\ue438": 7936,
      "\ue4b6\ue43c": 7937,
      "\uf646\ue06f\ue4a9\ue407\uf8c1": 7938,
      "\ue4c6\ue445": 7939,
      "\ue4bb\ue454": 7940,
      "\uf646\ue309\ue4d5\ue407": 7941,
      "\ue4c2\ue45c": 7942,
      "\ue4ba\ue41b": 7943,
      "\ue429\uf88f": 7944,
      "\ue06f\ue4a9\ue407\uf8e6": 7945,
      "\ue4c6\ue44d": 7946,
      "\ue4d9\ue40e": 7947,
      "\ue29a\ue4a7\ue407": 7948,
      "\uf646\ue309\ue4a2\ue407\uf88f": 7949,
      "\uf646\ue00b\ue4c6\ue407": 7950,
      "\uf646\ue22b\ue4be": 7951,
      "\uf646\ue22b\ue4c3": 7952,
      "\ue4c1\ue416\uf8db": 7953,
      "\ue40f\uf8d2": 7954,
      "\ue4ba\ue43f": 7955,
      "\uf646\ue29a\ue4bf": 7956,
      "\ue4ad\ue41e": 7957,
      "\ue4bb\ue407\uf8db": 7958,
      "\uf646\ue29a\ue4a1\ue407\uf88f": 7959,
      "\uf646\ue076": 7960,
      "\ue4c9\ue3e8\uf88f": 7961,
      "\ue4c0\ue407\uf8ba": 7962,
      "\ue4be\ue435": 7963,
      "\ue4c5\ue454": 7964,
      "\ue016\ue4b6\ue407": 7965,
      "\uf646\ue09b\ue4a9\ue407": 7966,
      "\ue4c3\ue44b": 7967,
      "\ue4b2\ue41a\uf8eb": 7968,
      "\ue49e\ue41e": 7969,
      "\ue4ce\ue454": 7970,
      "\ue4a2\ue416": 7971,
      "\ue4bf\ue436": 7972,
      "\ue3e7\ue4a2\ue407": 7973,
      "\uf646\ue06f\ue4a9\ue407\uf8dc": 7974,
      "\ue4b7\ue3e8\uf88f": 7975,
      "\ue4cb\ue417": 7976,
      "\uf646\ue06f\ue4a9\ue407\uf8d3": 7977,
      "\ue4c5\ue419": 7978,
      "\uf646\ue06f\ue4ae\ue407": 7979,
      "\ue4a7\ue420": 7980,
      "\ue309\ue4a2\ue407": 7981,
      "\ue4c2\ue443": 7982,
      "\uf646\ue037\ue4a2\ue407": 7983,
      "\ue4bb\ue40e": 7984,
      "\ue4c2\ue436": 7985,
      "\ue4b3\ue407\uf8db": 7986,
      "\ue4c4\ue40c": 7987,
      "\ue00b\ue4b6\ue407": 7988,
      "\ue4a3\ue407\uf8db": 7989,
      "\ue4be\ue41b": 7990,
      "\ue4bb\ue443": 7991,
      "\ue4c9\ue44d": 7992,
      "\ue4bf\ue416\uf8db": 7993,
      "\uf646\ue06f\ue4a9\ue407\uf8cb": 7994,
      "\ue06f\ue4a9\ue407\uf8c5": 7995,
      "\ue4cd\ue44b": 7996,
      "\ue4a4\ue421\uf88f": 7997,
      "\ue4c1\ue45a": 7998,
      "\ue021\ue4ab\ue407": 7999,
      "\ue016\ue4a7\ue407": 8000,
      "\ue4b9\ue416\uf8db": 8001,
      "\uf646\ue021\ue4c8\ue407\uf872": 8002,
      "\uf646\ue07a\ue4a9\ue407": 8003,
      "\uf646\ue06f\ue4a9\ue407\uf872": 8004,
      "\ue429\uf872": 8005,
      "\ue4c1\ue43d": 8006,
      "\uf646\ue072": 8007,
      "\uf646\ue06f\ue4a9\ue407\uf8cd": 8008,
      "\uf646\ue06f\ue4a9\ue407\uf8bf": 8009,
      "\ue408\uf88f": 8010,
      "\ue439\uf872": 8011,
      "\ue4d0\ue416": 8012,
      "\ue4c2\ue44b": 8013,
      "\ue4d0\ue410": 8014,
      "\uf646\ue29a\ue4bd": 8015,
      "\ue4a0\ue41f\uf88f": 8016,
      "\ue00b\ue4a4\ue407": 8017,
      "\ue4ca\ue3e8\uf88f": 8018,
      "\uf646\ue06f\ue4a9\ue407\uf8e4": 8019,
      "\ue4d4\ue407\uf8db": 8020,
      "\uf646\ue016\ue4c6\ue407\uf88f": 8021,
      "\ue49f\ue41f\uf87d": 8022,
      "\uf646\ue22b\ue4c2": 8023,
      "\ue4cc\ue442": 8024,
      "\ue4bf\ue45e": 8025,
      "\uf646\ue29a\ue4a9\ue407\uf88f": 8026,
      "\uf646\ue378\ue4a2\ue407\uf88f": 8027,
      "\ue4b7\ue3e8\uf872": 8028,
      "\ue49e\ue425": 8029,
      "\uf646\ue29a\ue4b6\ue407\uf8b6": 8030,
      "\uf646\ue06f\ue4a9\ue407\uf8ec": 8031,
      "\ue29a\ue4a2\ue407\uf88f": 8032,
      "\uf646\ue0df": 8033,
      "\ue4b9\ue424": 8034,
      "\ue4bf\ue43e": 8035,
      "\ue4c6\ue436": 8036,
      "\ue06f\ue4a9\ue407\uf8d2": 8037,
      "\ue14d\ue4a2\ue407\uf88f": 8038,
      "\ue49e\ue3e8": 8039,
      "\uf646\ue06f\ue4a9\ue407\uf8de": 8040,
      "\ue058\ue4a9\ue407": 8041,
      "\ue4c3\ue407": 8042,
      "\ue4b6\ue431": 8043,
      "\ue4c6\ue447": 8044,
      "\ue4c5\ue432": 8045,
      "\ue4be\ue454": 8046,
      "\uf646\ue06f\ue4c8\ue407\uf8b3": 8047,
      "\uf646\ue06f\ue4a9\ue407\uf8b1": 8048,
      "\uf646\ue06f\ue4b6\ue407\uf8ad": 8049,
      "\ue06f\ue4a9\ue407\uf8ca": 8050,
      "\ue4c8\ue454": 8051,
      "\uf646\ue06f\ue4a1\ue407\uf888": 8052,
      "\uf646\ue3e7\ue4b3\ue407": 8053,
      "\ue29a\ue4c4": 8054,
      "\uf646\ue078": 8055,
      "\ue4ab\ue41c": 8056,
      "\uf646\ue075": 8057,
      "\uf646\ue14d\ue4a9\ue407\uf88f": 8058,
      "\ue4c8\ue43f": 8059,
      "\ue4cb\ue430": 8060,
      "\ue4c3\ue424": 8061,
      "\ue458\uf88f": 8062,
      "\ue4c9\ue40d": 8063,
      "\ue4cc\ue43f": 8064,
      "\ue42d\uf88f": 8065,
      "\uf646\ue037\ue4b6\ue407": 8066,
      "\ue42d\uf8db": 8067,
      "\ue426\uf8e6": 8068,
      "\ue4aa\ue425": 8069,
      "\uf646\ue088": 8070,
      "\ue29a\ue4c6\ue407": 8071,
      "\ue4bd\ue43d": 8072,
      "\ue4bf\ue42c": 8073,
      "\ue4b8\ue407\uf8db": 8074,
      "\ue4ba\ue435": 8075,
      "\ue4af\ue417": 8076,
      "\ue4c4\ue443": 8077,
      "\ue378\ue4c6\ue407": 8078,
      "\ue29a\ue4a1\ue407": 8079,
      "\ue0de\ue4a3\ue407": 8080,
      "\ue4c2\ue438": 8081,
      "\ue4a3\ue425": 8082,
      "\ue4c9\ue455": 8083,
      "\ue3e7\ue4c8\ue407": 8084,
      "\ue4c1\ue410\uf88f": 8085,
      "\ue4c8\ue442": 8086,
      "\uf646\ue016\ue4c6\ue407": 8087,
      "\ue4c1\ue40c": 8088,
      "\ue497\ue421": 8089,
      "\ue021\ue4c8\ue407": 8090,
      "\ue4ce\ue417": 8091,
      "\ue4cb\ue431": 8092,
      "\ue4bf\ue3e8\uf8db": 8093,
      "\ue4ad\ue454": 8094,
      "\uf646\ue3e7\ue4a1\ue407": 8095,
      "\uf646\ue016\ue4c0": 8096,
      "\ue4a3\ue424": 8097,
      "\ue4c1\ue418\uf872": 8098,
      "\uf646\ue0de\ue4b0\ue407": 8099,
      "\ue00b\ue4ab\ue407": 8100,
      "\ue45a\uf8ea": 8101,
      "\uf646\ue378\ue4a9\ue407\uf88f": 8102,
      "\ue4b5\ue454": 8103,
      "\ue06f\ue4a9\ue407\uf8d1": 8104,
      "\ue4c1\ue416\uf8e6": 8105,
      "\ue4bb\ue3e8\uf872": 8106,
      "\uf646\ue22b\ue4d5\ue407": 8107,
      "\uf646\ue0dd\ue4a9\ue407": 8108,
      "\ue499\ue41e": 8109,
      "\ue4b8\ue430": 8110,
      "\uf646\ue016\ue4c8\ue407\uf88f": 8111,
      "\ue1bc\ue4ad\ue407": 8112,
      "\ue063\ue4a9\ue407": 8113,
      "\ue4a9\ue419": 8114,
      "\ue4ae\ue41e": 8115,
      "\ue40f\uf872": 8116,
      "\ue22b\ue4a9\ue407\uf872": 8117,
      "\ue4da\ue3e8": 8118,
      "\uf646\ue3e7\ue4bd": 8119,
      "\ue4a1\ue41f\uf872": 8120,
      "\ue44a\uf8e0": 8121,
      "\ue4c4\ue42c": 8122,
      "\ue4ce\ue42c": 8123,
      "\ue4cc\ue41c": 8124,
      "\uf646\ue07d": 8125,
      "\ue4c5\ue442": 8126,
      "\uf646\ue016\ue4c6": 8127,
      "\ue4bf\ue416\uf8e6": 8128,
      "\ue06f\ue4a9\ue407\uf8ba": 8129,
      "\ue4d0\ue40d": 8130,
      "\ue4ae\ue410": 8131,
      "\ue4bb\ue416\uf8db": 8132,
      "\ue06f\ue4a9\ue407\uf8e0": 8133,
      "\ue06f\ue4d4\ue407": 8134,
      "\uf646\ue06f\ue4a9\ue407\uf8bc": 8135,
      "\ue4ad\ue424": 8136,
      "\uf646\ue378\ue4b9": 8137,
      "\ue3fe\uf872": 8138,
      "\ue4ca\ue42c": 8139,
      "\uf646\ue29a\ue4a2\ue407\uf872": 8140,
      "\ue4af\ue42e": 8141,
      "\ue06f\ue4a9\ue407\uf8d7": 8142,
      "\ue4aa\ue420": 8143,
      "\ue44a\uf872": 8144,
      "\ue4cc\ue3e8\uf88f": 8145,
      "\ue06f\ue4a9\ue407\uf8d4": 8146,
      "\ue4ce\ue438": 8147,
      "\ue4c4\ue40d": 8148,
      "\ue4ad\ue410": 8149,
      "\ue4c2\ue3e8\uf872": 8150,
      "\ue4ad\ue421": 8151,
      "\uf646\ue021\ue4b9": 8152,
      "\ue06f\ue4a9\ue407\uf8c7": 8153,
      "\ue0de\ue4d5\ue407": 8154,
      "\ue4b8\ue434": 8155,
      "\ue4c2\ue43d": 8156,
      "\uf646\ue3e7\ue4b6\ue407\uf88f": 8157,
      "\ue4bf\ue426": 8158,
      "\ue4ac\ue407\uf872": 8159,
      "\ue06f\ue4a9\ue407\uf8c8": 8160,
      "\ue447\uf879": 8161,
      "\ue3f8\uf88f": 8162,
      "\ue4bd\ue416\uf8db": 8163,
      "\ue457\uf8dc": 8164,
      "\ue4c9\ue3e8\uf872": 8165,
      "\ue4b2\ue43c": 8166,
      "\uf646\ue378\ue4b7": 8167,
      "\uf646\ue1bc\ue4a2\ue407\uf88f": 8168,
      "\ue4bb\ue424": 8169,
      "\uf646\ue082": 8170,
      "\ue4b5\ue430": 8171,
      "\ue4b3\ue42f": 8172,
      "\ue4c4\ue426": 8173,
      "\ue4c8\ue432": 8174,
      "\uf646\ue042\ue4a2\ue407": 8175,
      "\ue4bf\ue439": 8176,
      "\ue29a\ue499\ue407": 8177,
      "\ue4cc\ue40c": 8178,
      "\ue4cc\ue419": 8179,
      "\uf646\ue07b": 8180,
      "\ue22b\ue4a2\ue407\uf88f": 8181,
      "\ue4ca\ue45a": 8182,
      "\ue4ca\ue40c": 8183,
      "\ue4a7\ue410": 8184,
      "\ue4b9\ue416\uf8e6": 8185,
      "\ue4c8\ue43e": 8186,
      "\uf646\ue06f\ue4a9\ue407\uf8b3": 8187,
      "\uf646\ue00b\ue4a1\ue407": 8188,
      "\ue06f\ue4a9\ue407\uf872": 8189,
      "\ue440\uf872": 8190,
      "\uf646\ue016\ue4c5": 8191,
      "\ue4ac\ue41c\uf8eb": 8192,
      "\uf646\ue071": 8193,
      "\ue4a7\ue41f\uf872": 8194,
      "\ue4bd\ue439": 8195,
      "\ue4c9\ue438": 8196,
      "\ue4b2\ue431": 8197,
      "\ue021\ue4a4\ue407": 8198,
      "\ue4ca\ue3e8\uf872": 8199,
      "\ue4dc\ue3e8": 8200,
      "\ue4ce\ue41a": 8201,
      "\uf646\ue378\ue4c2": 8202,
      "\ue378\ue4ad\ue407": 8203,
      "\uf646\ue06f\ue4a9\ue407\uf8dd": 8204,
      "\ue4c4\ue45e": 8205,
      "\uf646\ue06f\ue4a9\ue407\uf8e1": 8206,
      "\ue4a2\ue421\uf88f": 8207,
      "\ue4c6\ue413": 8208,
      "\ue4cb\ue454": 8209,
      "\ue4cb\ue432": 8210,
      "\ue4c3\ue3e8\uf872": 8211,
      "\ue4d6\ue44b": 8212,
      "\uf646\ue06f\ue4a2\ue407\uf87d": 8213,
      "\ue4dc\ue42f": 8214,
      "\ue4c6\ue427": 8215,
      "\uf646\ue016\ue4ad\ue407": 8216,
      "\uf646\ue021\ue4cd": 8217,
      "\uf646\ue090\ue4a9\ue407": 8218,
      "\ue447\uf8c9": 8219,
      "\ue4ba\ue442": 8220,
      "\uf646\ue06f\ue4a9\ue407\uf8ed": 8221,
      "\ue016\ue4a9\ue407\uf872": 8222,
      "\ue14d\ue4d5\ue407": 8223,
      "\ue4c3\ue3e8\uf88f": 8224,
      "\ue021\ue4a9\ue407\uf88f": 8225,
      "\uf646\ue079": 8226,
      "\ue4ce\ue40c": 8227,
      "\ue4b4\ue430": 8228,
      "\ue42b\uf8e0": 8229,
      "\ue4c4\ue410\uf88f": 8230,
      "\ue4a9\ue41c": 8231,
      "\uf646\ue07c": 8232,
      "\uf646\ue29a\ue4b5": 8233,
      "\ue4af\ue3e8\uf872": 8234,
      "\ue29a\ue4c2": 8235,
      "\ue4c8\ue40d": 8236,
      "\ue4bd\ue45e": 8237,
      "\ue4a4\ue41f\uf87d": 8238,
      "\ue021\ue4ad\ue407": 8239,
      "\ue4b4\ue41c\uf8eb": 8240,
      "\ue06f\ue4a7\ue407\uf88f": 8241,
      "\ue45f\uf872": 8242,
      "\ue4c1\ue3e8\uf8db": 8243,
      "\ue4b7\ue435": 8244,
      "\uf646\ue06f\ue4a9\ue407\uf8b5": 8245,
      "\ue06f\ue4be\ue407": 8246,
      "\ue4c5\ue41c": 8247,
      "\ue4c1\ue3e8\uf898": 8248,
      "\ue4c4\ue449": 8249,
      "\ue4bf\ue416\uf8d6": 8250,
      "\ue22b\ue4c6\ue407": 8251,
      "\ue4cf\ue418": 8252,
      "\uf646\ue06f\ue4a9\ue407\uf8e3": 8253,
      "\uf646\ue02c\ue4b6\ue407": 8254,
      "\ue4ca\ue445": 8255,
      "\ue49c\ue425": 8256,
      "\uf646\ue309\ue4a9\ue407\uf872": 8257,
      "\ue0de\ue4c0\ue407": 8258,
      "\ue378\ue4a9\ue407\uf88f": 8259,
      "\ue4be\ue442": 8260,
      "\ue4a7\ue407\uf87d": 8261,
      "\ue4b9\ue416\uf87d": 8262,
      "\ue02c\ue4a2\ue407": 8263,
      "\ue06e\ue4a9\ue407": 8264,
      "\ue4af\ue41c\uf8eb": 8265,
      "\ue4cc\ue449": 8266,
      "\ue0de\ue4a1\ue407\uf88f": 8267,
      "\ue4c9\ue445": 8268,
      "\uf646\ue29a\ue4d5\ue407": 8269,
      "\ue4b5\ue407\uf872": 8270,
      "\ue4a4\ue410": 8271,
      "\ue4cf\ue43e": 8272,
      "\ue4ad\ue415": 8273,
      "\ue4ce\ue43f": 8274,
      "\ue412\uf88f": 8275,
      "\ue4b2\ue41e": 8276,
      "\uf646\ue02c\ue4ab\ue407": 8277,
      "\ue0de\ue4c1\ue407": 8278,
      "\uf646\ue0b1\ue4a9\ue407": 8279,
      "\ue4a8\ue42f": 8280,
      "\ue4c9\ue40c": 8281,
[...]
